. 850314647
Ġthe 800385005
, 800251374
Ġto 432911125
Ġand 394899794
Ġof 386139013
Ġa 357878752
Ġin 311196488
- 215156821
Ġfor 155236946
Ġthat 154060431
Ġon 147178919
Ġis 142591644
âĢ 130810923
's 116498242
Ġwith 114784681
ĠThe 108664122
Ġwas 100357189
Ġ" 93880741
Ġat 93284459
Ġit 88803471
Ġas 85749070
Ġsaid 85009762
Ļ 82642284
Ġbe 77095226
s 76381845
Ġby 73380803
Ġfrom 71911149
Ġare 68628918
Ġhave 67243391
Ġhas 64317701
: 63508661
Ġ( 63001640
Ġhe 61994245
ĠI 60989470
Ġhis 56381137
Ġwill 55817121
Ġan 55370942
Ġthis 52404829
) 49955136
ĠâĢ 49278190
Ġnot 49022194
Ŀ 48828693
Ġyou 46413707
ľ 46095324
Ġtheir 42623671
Ġor 41629710
Ġthey 41252315
Ġwe 40985272
Ġbut 40041980
Ġwho 39889004
Ġmore 36480426
Ġhad 35941594
Ġbeen 34803895
Ġwere 34523820
Ġabout 33398226
," 33091056
Ġwhich 32654778
Ġup 32035371
Ġits 32028126
Ġcan 31691389
Ġone 31181535
Ġout 30862486
Ġalso 30813519
Ġ$ 30660454
Ġher 30374808
Ġall 29369504
Ġafter 29183313
." 29041171
/ 28893906
Ġwould 27738361
't 26738514
Ġyear 25458253
Ġwhen 24232023
Ġfirst 23994060
Ġshe 23817299
Ġtwo 23792701
Ġover 23376942
Ġpeople 23220442
ĠA 22862326
Ġour 22516011
ĠIt 22500762
Ġtime 22453472
Ġthan 22170426
Ġinto 21469936
Ġthere 21420897
t 21318775
ĠHe 21314775
Ġnew 21268970
ĠâĢĶ 21092011
Ġlast 20404401
Ġjust 20375026
ĠIn 20334200
Ġother 20320611
Ġso 20315428
Ġwhat 20012607
I 19422652
Ġlike 19096246
a 18759122
Ġsome 18693984
S 18238046
Ã« 18079440
Ġthem 17992787
Ġyears 17864313
' 17843244
Ġdo 17817361
Ġyour 17796224
Ġ- 17532111
Ġ1 17384084
" 17279082
Ġif 17091775
Ġcould 17025679
? 16939428
Ġno 16677856
i 16553037
m 16327061
Ġget 15971344
ĠU 15879338
Ġnow 15823492
Ġhim 15819244
Ġback 15197650
ĠBut 15053172
ĠâĢĵ 14786686
Ġmy 14556795
Ġ' 14539133
Ġonly 14309272
Ġthree 14176045
; 14145184
Ġ2 14098304
The 14083981
1 14033199
Ġpercent 13989417
Ġagainst 13787695
Ġbefore 13752356
Ġcompany 13470232
o 13378307
ĠTrump 13160863
Ġhow 13034870
Ġbecause 12998354
Ġany 12928745
Ġmost 12878804
Ġbeing 12866041
Ġmake 12811365
Ġwhere 12810008
Ġduring 12785466
Ġthrough 12685151
Ġwhile 12676060
000 12643489
ĠThis 12491952
Ġmillion 12485834
ing 12398432
Ġ3 12345382
Ġmade 12242439
Ġwell 12187173
Ġ10 12095675
Ġdown 12088892
Ġoff 12004582
Ġsays 11932599
Ġme 11810743
ĠB 11778080
Ġgoing 11554835
Ġteam 11537640
ĠWe 11416721
Ġthose 11147387
Ġgovernment 11002697
Ġway 10997448
We 10975044
Ġmany 10945123
Ġthen 10941163
Ġwork 10932097
Ġtold 10878979
com 10826031
2 10797378
Ġgame 10787263
ĠAnd 10673666
in 10657207
year 10592731
Ġp 10574822
Ġvery 10526221
Ġday 10523541
Ġhome 10476406
Ġtake 10465302
Ġweek 10446380
Ġsince 10423577
ĠNew 10348378
Ġmay 10336013
Ġeven 10297739
Ġseason 10289758
Ġsee 10280263
Ġ2017 10243413
Ġstate 10234334
Ġ5 10188179
ed 10110644
Ġshould 10077564
Ġaround 10066642
Ġ2018 10065012
Ġsecond 10051426
Ġus 10027697
Ġstill 9981059
Ġmuch 9920784
Ġ4 9911573
Ġgood 9903273
Ġthink 9899715
% 9886396
ĠS 9824882
Ġthese 9788574
Ġmarket 9785844
ĠD 9705921
th 9632736
Ġgo 9594120
're 9549150
Ġsuch 9547397
Ġknow 9515151
Ġincluding 9514008
Ġdon 9399858
y 9399371
Ġnext 9350994
ĠP 9326094
Ġdid 9317800
Ġunder 9296956
Ġsay 9295771
en 9233925
ĠL 9191046
Ġbetween 9185932
Ġper 9178621
ĠK 9120375
ĠC 9057596
Ġ6 8963492
Ġworld 8936939
Ġpart 8882717
ĠN 8811370
Ġright 8792653
Ġwant 8755010
Ġfour 8704406
), 8681852
Ġhigh 8668925
Ġneed 8595175
re 8550153
e 8521820
It 8495454
Ġhelp 8482028
5 8478672
3 8372937
Ġcountry 8372574
ĠR 8359700
Ġpolice 8353078
A 8336893
Ġlong 8325716
ĠThey 8309982
Ġend 8287585
er 8275838
ĠT 8275603
ĠM 8268937
u 8260458
Ġboth 8203580
Ġhere 8202575
an 8193169
on 8189103
Ġ7 8122128
Ġde 8069108
ĠShe 7988935
Ġbusiness 7984150
Ġreport 7938818
j 7922334
ers 7880395
Ġreally 7805773
ĠPresident 7800278
ar 7777203
ĠG 7732480
ĠFriday 7712997
ĠF 7593883
Ġbest 7589093
Ġsame 7577523
Ġanother 7566250
Ġset 7556294
old 7550625
ĠThat 7507098
as 7495866
n 7470439
Ġcome 7450955
Ġfamily 7411391
Ġpublic 7409099
ĠFor 7363929
ĠAs 7347040
0 7312426
ĠH 7306406
Ġ8 7279240
Ġ20 7272825
Ġfive 7262915
es 7253218
ĠTuesday 7220578
Ġn 7218583
ĠThursday 7152871
Ġquarter 7135265
h 7117156
Ġtop 7113713
Ġgot 7090351
Ġlife 7074121
ĠMonday 7040732
Ġfound 7037776
Ġuse 7012062
ĠW 6995545
4 6983878
ĠWednesday 6974965
Ġown 6966637
Ġaccording 6959506
Ġplay 6952288
Ġshow 6939061
ĠSt 6938890
Ġman 6920647
Ġleft 6908579
ĠUnited 6875577
Ġ12 6855797
Ġplace 6829761
ĠIf 6812464
Ġlot 6769157
Ġformer 6727321
Ġ0 6641494
). 6624794
Ġsupport 6593949
ie 6588847
Ġbillion 6571290
Ġt 6561739
Ġshares 6545519
! 6525880
z 6511169
k 6481093
ĠState 6451687
Ġpoints 6415053
Ġgroup 6412987
Ġschool 6397024
Ġinformation 6394244
Ġ2016 6392878
al 6358319
r 6351445
Ġwin 6336754
Ġnews 6331987
Ġused 6315804
Ġput 6313784
Ġcity 6306370
ĠJ 6287674
ĠThere 6264091
Ġnumber 6240689
C 6237906
've 6231567
Ġeach 6220759
Ġtoo 6216478
Ġwon 6189790
ly 6174365
Ġmonth 6170682
is 6158328
Ġadded 6143528
Ġlook 6141406
Ġbetter 6119704
Ġevery 6119691
Ġ& 6097096
Ġdays 6093784
Ġ9 6086478
Ġtook 6080393
Ġnight 6062347
Ġe 6058377
Ġ11 6044404
os 6021291
Ġfew 5961986
or 5944078
ĠNorth 5884266
ĠYou 5875428
Ġthird 5843037
Ġgreat 5834912
Ġcalled 5825616
ĠOn 5810506
Ġpast 5807417
Ġcame 5806489
Ġmonths 5804564
ĠSaturday 5804009
Ġ15 5793456
Ġbig 5781210
ĠE 5780871
ĠUS 5756002
Ġthings 5755617
ĠO 5703257
Ġd 5696335
Ġstart 5686348
B 5683530
Ġstock 5662615
Ġ30 5657499
Ġwomen 5655969
ĠSouth 5626252
ĠMay 5617548
Ġnever 5613802
Ġpresident 5604800
ĠSunday 5592880
Ġwithout 5592559
man 5586720
8 5579916
Ġdidn 5562000
Ġlocal 5554673
6 5545853
Ġsomething 5537815
Ġcase 5525740
ĠAll 5518540
it 5516122
7 5511292
ĠSo 5508724
Ġchildren 5500821
Ġaway 5473031
Ġlittle 5460960
Ġsix 5456445
ĠCity 5424602
ĠCounty 5378471
Ġdata 5362221
at 5361225
Ġalready 5359232
d 5328572
Ġmoney 5322515
Ġearly 5319711
Ġacross 5285283
Ġexpected 5283708
Ġrun 5281356
Ġlater 5274805
am 5273108
Ġprice 5236169
Ġgames 5223345
ĠMr 5222102
b 5208299
Ġmight 5204410
Ġdifferent 5203669
Ġreported 5169445
Ġdeal 5168645
Ġmedia 5168496
Ġgrowth 5156053
Ġcommunity 5138614
ĠChina 5130949
'm 5123031
c 5103752
Ġwent 5093006
ĠNo 5076411
Ġable 5071579
Ġmaking 5055917
Ġarea 5044992
Ġfar 5034040
Ġstatement 5023350
ĠHouse 5022728
Ġworking 5015331
M 5015012
Ġk 5008250
Ġseen 5005597
Ġcompanies 5005225
Ġtoday 4997835
Ġmembers 4990678
Ġuntil 4981122
Ġfull 4950527
Ġagain 4941775
Ġhalf 4937397
Ġshare 4929257
le 4925771
Ġalways 4911409
Ġcourt 4905422
l 4894914
and 4889056
Ġchange 4877439
Ġfind 4865397
9 4854296
Ġsystem 4852641
ĠV 4850805
ĠYork 4849650
ĠAmerican 4847284
Ġhead 4846260
Ġplayers 4828745
Ġdoes 4805157
Ġhealth 4772487
Ġm 4766512
Ġpower 4764682
Ġpoint 4760238
Ġhit 4743915
Ġ. 4731348
Ġ-- 4728044
Ġfree 4720640
., 4714734
Ġlead 4700915
Ġseveral 4696785
Ġrecent 4657189
Ġcall 4652756
N 4649060
Ġlaw 4644445
Ġkeep 4638480
Ġopen 4637662
ĠNews 4618471
Ġgive 4618338
ia 4614094
ĠMarch 4608260
D 4606393
ĠNational 4602990
ĠAt 4586377
Ġtimes 4584310
Ġfuture 4567755
R 4546496
Ġ14 4546419
ĠJune 4542206
Ġofficials 4536638
Ġ18 4526225
Ġimportant 4511113
f 4502347
Ġfinal 4489997
Ġ13 4484539
ĠOne 4472447
P 4460868
Ġfollowing 4455874
Ġcar 4450969
Ġleast 4445924
Ġwater 4433465
Ġevent 4424736
Ġline 4412038
Ġmove 4401529
Ġservices 4393865
Ġhaving 4389889
ĠWhen 4380458
Ġstudents 4375390
ĠPolice 4371881
el 4370421
Ġam 4365322
ĠZ 4364296
Ġside 4360877
Ġstory 4331683
Ġdue 4330036
Ġmeeting 4325097
K 4320291
Ġmust 4314178
ĠStates 4314165
Ġlikely 4312560
G 4306679
Ġcontinue 4304404
Ġago 4296432
Ġparty 4287967
Ġmajor 4285173
Ġindustry 4280062
Ġless 4276707
30 4239023
Ġun 4236623
Ġhard 4234882
Ġservice 4227635
Ġ16 4219535
Ġlooking 4208129
Ġheld 4198810
ve 4195216
Ġwhether 4185532
ĠJuly 4181081
Ġtaken 4179380
Ġalong 4178336
Ġasked 4175165
Ġstarted 4175032
Ġbecome 4169486
Ġforward 4155215
Ġresearch 4147302
Ġoffice 4145837
Ġpolitical 4133545
to 4126396
Ġtogether 4126179
Ġgetting 4121510
Ġplan 4119035
Ġ25 4106021
T 4105433
Ġamong 4105196
Ġcoming 4102924
Ġdecision 4097217
Ġvideo 4097102
Ġ2015 4093083
g 4092580
ĠAfter 4087207
Ġsecurity 4083845
L 4083418
Ġcare 4082770
Ġgiven 4079395
Ġavailable 4077362
âĢĶ 4077221
Ġs 4076617
ĠWest 4072140
'll 4070745
Ġpay 4064159
Ġnear 4057078
Ġsaying 4053024
Ġannounced 4042308
Ġprogram 4037596
ĠApril 4031658
Ġreal 4018655
ĠUniversity 4015508
ĠWith 4011218
AP 4005397
Ġsocial 4000144
Ġclose 3997080
et 3993493
Ġcurrent 3984707
Ġwhy 3978369
F 3969953
ĠTo 3968119
ĠTwitter 3965772
Ġthough 3965252
Ġ17 3943972
Ġtaking 3941497
ĠInc 3938197
Ġmen 3937663
w 3925608
Ġcomes 3919358
ley 3917053
Ġdoing 3911665
Ġprocess 3909332
ĠJohn 3906464
ch 3891128
00 3889614
Ġfinancial 3888837
Ġlow 3882885
Ġenough 3878715
ĠWhile 3873729
Ġfurther 3872753
Ġpost 3863057
Ġfeel 3862011
st 3858937
Ġperson 3852378
ĠFacebook 3851712
ĠWorld 3847206
Ġwithin 3842112
ad 3832573
Ġdone 3832298
the 3818301
Ġlate 3816048
Ġtax 3814765
Ġdoesn 3811813
Ġthing 3803324
Ġnational 3791037
Ġjob 3787455
Ġusing 3785788
ĠHowever 3779927
ic 3777762
Ġcampaign 3777288
Ġrecord 3776768
Ġbehind 3771717
:// 3757930
ĠDepartment 3755186
p 3754633
Ġothers 3745778
ĠJanuary 3737875
Ġorder 3737616
Ġ[ 3723444
Ġsales 3719859
Ġyet 3719356
Ä 3715003
Ġsmall 3710786
Ġseries 3703789
Ġface 3699485
ĠWhat 3696280
Ġ50 3695382
Ġever 3694355
Ġearlier 3691575
Ġlove 3680139
up 3678416
Ġrights 3665779
ĠAn 3661007
ist 3659796
Ġmorning 3643884
ĠWashington 3638778
Ġyoung 3622381
Ġlatest 3605249
ĠIndia 3602291
Ġtrying 3590156
Ġfire 3587528
Ġled 3581398
Ġstrong 3580361
Ġreturn 3577048
Ġlevel 3568130
O 3565250
Ġaverage 3562952
Ġperiod 3561460
Ġexperience 3550042
ak 3548528
Ġpossible 3532659
Ġbelieve 3526648
Ġinclude 3521569
Ġoil 3518738
Ġrecently 3518633
Ġonce 3511388
Ġknown 3510560
Ġlost 3506312
Ġsure 3504513
us 3502364
Ġweeks 3487380
Ġfood 3487072
Ġreports 3485766
Ġrating 3485171
ĠMinister 3481632
Ġwoman 3480433
Ġprovide 3480049
Ġproject 3467067
Ġissue 3466219
Ġlive 3463315
10 3460357
Ġclear 3457691
he 3455533
Ġcost 3454361
Ġplayed 3452135
Ġreleased 3449165
Ġcoach 3445703
v 3445461
Ġ24 3443747
Ġseven 3439871
Ġplans 3431656
Ġdevelopment 3424520
ur 3421332
ĺ 3418219
Ġincrease 3415717
This 3412196
Ġpolicy 3409727
Ġcent 3405540
Ġbased 3399689
E 3395391
il 3391001
ĠDecember 3380470
Ġglobal 3379545
Ġtrade 3377200
Ġhours 3371380
Ġhigher 3369691
Ġgoal 3367419
H 3363104
ĠAl 3353736
Ġ100 3350527
Ġminutes 3348906
Ġelection 3340128
ĠAmerica 3337972
Ġrate 3334848
ĠCh 3333865
Ġ21 3329148
... 3328812
ĠWhite 3325356
Ġdirector 3320853
Ġposition 3319741
Ġshot 3308131
Ġlarge 3303360
Ġc 3302371
Ġb 3284415
] 3282646
Ġissues 3276582
Ġdeath 3276387
Ġbuilding 3273427
Ġtotal 3272517
Ġoften 3267675
Ġv 3265844
Ġcountries 3262749
Ġhistory 3260749
Ġoutside 3251238
Ġfederal 3247356
Ġ19 3244526
Ġfact 3242666
ĠHigh 3241700
Ġcareer 3238451
im 3236458
Ġinternational 3233294
ĠNovember 3229315
Ġfront 3227294
Ġkind 3224985
Ġkey 3213613
ra 3209260
ĠSan 3199943
Ġshort 3194716
Ġname 3193856
ĠAccording 3192749
Ġcourse 3170903
Ġre 3166428
Ġwanted 3162561
W 3145229
ĠSeptember 3138924
Ġinterest 3138049
Ġrole 3137970
Ġresults 3137124
Ġeconomic 3122439
Ġ2014 3121857
Ġchance 3119047
ĠOctober 3115876
Ġspecial 3113770
Ġofficial 3107914
Ġneeds 3105231
um 3102434
Ġl 3100235
Ġproducts 3098789
Ġnon 3098376
Ġ@ 3094662
ĠBank 3092842
Ġahead 3079283
Ġhouse 3078111
U 3074167
Ġboard 3072323
Ġold 3071877
Ġsaw 3070835
Ġlower 3050336
ĠEuropean 3047066
Ġcontrol 3040837
ĠRussia 3037800
Ġeight 3034708
Ġrelease 3033943
Ġpotential 3033180
Ġthought 3027961
Ġinvestigation 3026379
Ġonline 3025436
based 3024747
Ġtechnology 3023165
ĠDonald 3023164
id 3020879
Ġbody 3018684
Ġrisk 3018183
ian 3015679
Ġcapital 3012306
Ġstaff 3009667
Ġaction 3002610
ĠLeague 3002353
Ġplaying 3001744
Ġmakes 2997522
Ġalmost 2983869
Ġperformance 2981556
Ġ22 2972131
Ġg 2969299
Ġfilm 2967019
Ġnearly 2965071
ĠCenter 2960427
Ġvisit 2957831
ĠGroup 2956818
Ġbank 2956176
Ġbit 2956098
Ġreceived 2953729
ĠAugust 2951114
Ġmilitary 2950537
ĠHis 2948398
ine 2946582
Ġchief 2945677
ĠSchool 2944538
Ġbring 2943764
ĠCourt 2943739
Ġ(@ 2942029
Ġmeans 2934719
ĠSh 2931322
Ġfans 2930626
Ġse 2925764
Ġ40 2924706
20 2912540
". 2911206
V 2910401
Ġcut 2910213
Ġkilled 2909079
Ġ# 2908146
Ġprices 2904452
Ġgave 2898494
ĠStreet 2896507
ir 2894182
ĠY 2892577
Ġcurrently 2891202
Ġf 2889780
ay 2886056
ne 2881312
te 2874230
Ġtry 2873478
ĠPark 2868743
ĥ 2861798
J 2858852
Ġquestion 2848588
Ġhand 2846040
Ġeconomy 2842914
Ġinvestors 2841920
able 2838877
Ġplayer 2837279
ĠBy 2836122
ĠDavid 2833311
Ġloss 2832696
ab 2832081
Ġbelow 2831245
Ġwrote 2825882
co 2823768
ate 2822150
Ġrunning 2819311
un 2817676
Ġbegan 2811122
Ġsingle 2808168
Ġfield 2807667
Ġ23 2804699
Ġleader 2801970
Ġw 2800975
ĠCalifornia 2799863
Ġfourth 2795504
Ġactually 2795443
Ġlist 2777650
ll 2776601
Ġcouple 2770111
Ġstudy 2768526
Ġteams 2759754
He 2759525
ah 2754965
ĠCanada 2752396
Ġla 2751808
Ġresult 2750444
Ġaccess 2750214
Ġvote 2746600
ĠMore 2744902
ĠFebruary 2744846
Ġrevenue 2744124
Ġoffer 2740354
Ġlet 2739832
ier 2737933
Ġbuy 2737646
Ġattack 2733555
Ġblack 2730078
Ġr 2728295
Ġareas 2714274
Ġstop 2700521
Ġimpact 2694744
Ġmatch 2687504
Ġinvestment 2686827
Ġcustomers 2685685
Ġleaders 2685288
ies 2682283
Ġmember 2681984
Ġchild 2679658
Ġroad 2678829
ul 2675721
Ġvalue 2675064
Ġshows 2673705
ĠDr 2671163
ĠDe 2667070
ant 2666262
ĠLondon 2658993
Ġroom 2657291
Ġmusic 2648808
Ġproduction 2648233
Ġanything 2646862
Ġfirm 2645756
Ġbiggest 2645293
Ġair 2637801
Ġproblem 2637232
Ġgeneral 2635825
Ġwasn 2634522
Ġi 2634263
Ġprivate 2633915
Ġespecially 2632902
Ġadministration 2624861
Ġadditional 2624698
ĠCo 2624083
Ġopportunity 2624035
Ġhold 2621047
& 2620736
Ġmatter 2619855
Ġsenior 2619338
Ġclub 2619137
Ġsomeone 2618208
ĠÃ 2618030
ĠEast 2611608
Ġ2019 2607739
.' 2602497
Ġneeded 2597101
ĠJames 2596588
time 2591941
Ġhowever 2587673
Ġeverything 2584888
Ġeveryone 2577787
Ġdied 2574566
Ġinvolved 2573209
Ġfriends 2568568
Ġisn 2566267
Ġworth 2562749
ik 2549917
ĠCup 2544616
Ġshowed 2536696
There 2535706
Ġ28 2530192
Ġmeet 2529534
Ġ26 2528860
Ġ27 2527523
Y 2526960
Ġregion 2525489
ĠPress 2524158
ĠNow 2523828
Ġson 2523419
Ġspace 2516165
Ġleading 2511014
Ġstates 2509794
Ġweekend 2503584
ĠÂ£ 2503218
Ġmother 2502456
Ġprevious 2500659
ĠUK 2499158
ĠMichael 2496197
Ġleave 2495174
est 2490074
em 2486179
Ġz 2484836
ĠSome 2481413
ors 2475721
out 2470404
15 2468787
Ġwar 2466968
Ġwebsite 2465830
Ġstar 2465693
X 2458697
ro 2457793
Ġtarget 2455621
Ġhimself 2454504
Ġturn 2453199
ĠEurope 2450641
Ġworked 2447239
Ġenergy 2446982
Ġscored 2446876
Ġ* 2445064
Ġsoon 2444049
Ġball 2443100
ĠTV 2441989
Ġannual 2432713
Ġ2013 2428055
Ġrace 2426818
ĠInternational 2426428
'd 2425595
ĠMarket 2421705
Ġconference 2417713
io 2416570
Ġo 2415840
Ġchanges 2414786
ig 2414598
Ġofficers 2413453
Ġinside 2411736
Ġform 2408790
Ġpublished 2407660
Ġphone 2407258
Ġco 2402573
Ġlegal 2402326
Ġexecutive 2400825
Ġfight 2399123
ings 2395466
Ġhope 2394784
Ġsummer 2392276
Ġofficer 2385503
Ġfootball 2385039
Ġproperty 2384203
@ 2383468
Ġbook 2381026
Ġparents 2380456
Ġcosts 2379083
ac 2378895
Ġmanager 2377588
Ġcreate 2376885
Ġage 2374155
Ġemail 2371784
Ġmarkets 2368766
Ġmain 2368606
Ġhuman 2366880
Ġsent 2363611
Ġmanagement 2356967
ĠDay 2356312
ton 2352389
Ġcash 2349430
Ġfocus 2349359
Ġexpect 2349127
Ġtraining 2347321
Ġbecame 2346853
Ġwhose 2342305
Ġevents 2337450
Ġround 2335936
ĠLe 2333657
Ġfell 2332768
Ġabove 2332229
Ġanalysts 2330317
Ġtalk 2324920
Ġsituation 2315814
ri 2312070
ated 2311421
ke 2310632
Ġwants 2306041
ag 2305310
Ġlives 2304973
om 2303562
Ġal 2300111
Ġdemand 2297054
Ġsafety 2295650
Ġrest 2294588
ĠCouncil 2294310
Ġpersonal 2292185
Ġsite 2284943
ĠRussian 2281882
Ġmid 2281714
Ġnothing 2281124
Ġwhole 2279131
Ġbill 2275319
Ġsold 2272741
ĠBritish 2271280
se 2268773
Ġremain 2268531
12 2264589
Ġforeign 2261296
Ġshooting 2260201
Ġstay 2259754
50 2259547
ang 2258982
Ġhospital 2257188
Ġbad 2255914
Ġaddress 2255859
ĠKorea 2249342
Ġhappened 2248989
Ġcharges 2248944
Ġwhite 2247322
Ġ31 2246707
If 2245244
Ġearnings 2243318
Ġbreak 2243237
Ġlight 2239438
Ġterms 2238923
ĠChinese 2237519
ĠSenate 2237334
ana 2233955
Ġidea 2233086
ap 2231417
of 2229762
Ġnine 2228394
Ġcompared 2226618
Ġbuild 2226353
ard 2225805
In 2224123
Ġsimilar 2222423
Ġgas 2220823
Ġvictory 2220082
Ġ2012 2219693
Ġdebt 2219662
ĠMar 2219349
Ġarrested 2218821
Ġcomment 2217212
Ġincreased 2216122
Ġmedical 2215806
Ġ29 2214953
ĠJan 2214929
Ġgroups 2212471
Ġdespite 2211616
Ġfall 2211232
Ġtell 2204752
Ġworkers 2204036
Ġtown 2203146
Ã© 2202115
Ġwife 2200682
Ġquestions 2199255
Ġcontinued 2197871
Ġheart 2193603
Ġmet 2190750
Ġbrought 2189669
Ġhelped 2189626
ĠCongress 2186721
Ġstep 2185546
Ġfather 2185413
Ġmoment 2185214
Ġproduct 2185135
Ġprobably 2184857
Ġlargest 2184827
Ġvehicle 2180149
ĠEngland 2178553
Ġallow 2178508
Ġstarting 2177234
Ġkids 2176292
Ġincident 2175412
Ġnet 2173733
Ġrates 2173661
ĠRead 2170484
Ġpressure 2170048
Ġincluded 2169734
Ġread 2168903
Ġissued 2168582
ol 2167597
Ġeither 2164690
Ġefforts 2163330
Ġincludes 2162686
ĠRepublican 2161099
ish 2159475
âĢ¦ 2158929
Ġgoals 2157800
aj 2155490
Ġen 2154941
x 2154822
Ġraised 2154446
au 2153394
Ġlonger 2153055
ut 2150386
Ġwatch 2150379
ĠTexas 2150034
You 2148662
Ġrange 2143071
nd 2142250
Ġfunds 2141503
Ġremains 2139387
ĠMark 2139279
Ġ60 2139153
Ġque 2138790
sh 2137623
Ġinterview 2137372
Ġrather 2135247
Ġresidents 2134103
Ġgrowing 2132520
Ġpre 2131237
Ġpaid 2125446
Ġcases 2125055
ĠReuters 2121327
Ġdifficult 2121234
Ġsign 2121150
ĠGoogle 2120925
Ġhttps 2120211
ĠPaul 2118913
Ġliving 2111347
day 2109304
ĠQ 2108223
iz 2107435
ĠRed 2104723
Ġland 2104400
They 2101876
ĠRoad 2098776
_ 2098771
ĠThese 2098237
Ġview 2097507
Ġagency 2094834
Ġreason 2094385
Ġallowed 2094215
ĠAustralia 2092752
az 2081290
ĠRe 2079864
Ġturned 2079818
11 2079615
Ġnation 2079046
Ġready 2078225
Ġpress 2078060
Ġbudget 2077826
Ġdaily 2076000
ĠChief 2074891
Ġfamilies 2072344
Ġsignificant 2070424
ĠFirst 2062552
Ġthemselves 2061430
Ġj 2059389
Ġruns 2058329
Ġaccused 2054600
Ġtakes 2053126
Ġspent 2051234
Ġvia 2050465
ot 2048274
ina 2048095
25 2047894
land 2047797
Ġexample 2046882
Ġauthorities 2046230
Ġdate 2045207
Ġended 2043458
all 2043235
Reuters 2038256
Ġbusinesses 2037358
ans 2035309
Ġdetails 2032332
Ġground 2031475
Ġpretty 2028884
ĠApple 2027995
ation 2026813
ĠSmith 2023899
ĠCompany 2020359
ĠFlorida 2020302
Ġdrug 2016917
Ġresponse 2013222
one 2010517
Ġeducation 2009054
Ġmean 2007764
Ġleague 2006805
Ġanyone 2006766
Ġminister 1994135
Ġtitle 1992183
Ġadding 1990482
Ġproblems 1988748
Ġopening 1987768
Ġconditions 1986706
Ġred 1985660
Ġdecided 1985309
Å 1983048
Ġposted 1981282
term 1979172
Ġamount 1978125
ĠEU 1977385
Ġsuccess 1973375
Ġevidence 1972674
ĠObama 1971043
Ġaddition 1969680
Ġprovided 1969527
ĠLos 1967900
Ġagreement 1967895
Ġstage 1966998
ens 1966963
Ġrelationship 1966928
ĠGeneral 1965109
Ġsector 1965030
Ġstudent 1963705
ating 1963552
Ġtest 1963452
", 1962893
Ġwinning 1959629
Ġfelt 1959617
Ġsource 1956891
Z 1956274
Ġseems 1955550
Ġcause 1955126
Ġschools 1954189
Ġdrive 1952903
Ġensure 1951761
Ġhuge 1951553
ĠMy 1949390
ĠHealth 1944470
Ġscene 1943834
Ġgiving 1942268
Ġcenter 1942249
Ġpositive 1941157
Ġyards 1939245
Ġjobs 1939135
Ġaccount 1938862
Ġheard 1935927
Ġquality 1935780
Ġways 1935540
Ġimmediately 1929631
Ġemployees 1927034
are 1926581
Ġpass 1925558
ĠCEO 1924601
Ġreceive 1919903
Ġlooks 1919157
ĠAfrica 1915260
Ġthroughout 1915130
led 1914387
Ġrelated 1914014
Ġsell 1913098
ĠUnion 1909848
ĠPhoto 1908826
ter 1908475
Ġquickly 1907503
ĠHow 1906721
Ġvarious 1906704
Ġreach 1906344
Ġpick 1905945
Ġcharged 1905773
Ġquite 1905690
ent 1904852
q 1903294
ins 1903278
Ġphoto 1902254
Ġunderstand 1899229
ĠâĢ¢ 1897899
Ġreached 1897347
Ġtrack 1895735
uk 1894339
Ġeffort 1892750
ville 1890732
Ġcentral 1889199
Ġdaughter 1886758
Ġcontract 1885004
Ġinjury 1881967
Ġopened 1880372
Ġ($ 1879205
Ġstraight 1878736
17 1875025
Ġcredit 1874312
ĠIndian 1869131
Ġsexual 1868585
Ġworks 1868244
Ġeasy 1867987
18 1866658
Ġclosed 1862252
Ġh 1862164
Ġhappen 1859225
Ġforce 1855499
ler 1855200
Ġhappy 1851086
Ġshared 1850666
Ġoverall 1848988
Ġmoving 1847435
á 1843867
Ġprojects 1842927
ĠBlack 1838354
Ġconcerns 1836011
Ġclass 1834121
Ġtried 1832988
Ġappeared 1831679
Ġcontent 1831610
ĠDistrict 1829988
Ġterm 1828595
Ġinstead 1828369
ĠOffice 1825877
Ġcontinues 1823113
Ġlevels 1821399
Ġafternoon 1821145
Ġfund 1821079
Ġsale 1821016
Ġdriver 1820572
Ġask 1819995
Ġcannot 1818041
ner 1816897
end 1815421
ĠHere 1814262
field 1812767
Ġstore 1811355
www 1810984
Ġcertain 1810732
Ġself 1810704
Ġdollar 1806001
ĠHer 1805620
Ġpopular 1804542
Ġfollow 1803718
Ġspending 1802885
by 1802513
Ġmoved 1799212
Ġgoes 1794822
Ġcreated 1794109
Ġstand 1794082
Ġoperations 1793094
Ġlooked 1791585
Ġtreatment 1791504
ov 1790178
Ġdistrict 1789889
Ġsigned 1789224
Ġhands 1789080
Ġmodel 1788885
ĠAngeles 1787699
Ġy 1785106
Ġborder 1784176
Ġincome 1782930
ĠLast 1782099
Ġcharge 1780375
Ġdriving 1780266
ĠJapan 1779960
Ġrise 1778625
Ġtalks 1774579
Ġfollowed 1772616
Ġpreviously 1768597
Ġusers 1768596
Ġfunding 1768371
ĠJohnson 1768004
Ġ 1767607
ou 1766245
ai 1766073
Ġnamed 1765293
Ġfriend 1759778
ĠNov 1758636
Ġdefense 1757768
ĠBritain 1757560
Ġentire 1756508
Ġtrading 1756194
Ġfailed 1755775
ĠEl 1753800
Ġclaims 1753746
Ġcomments 1753739
Ġbeat 1752238
ib 1751391
Ġbasis 1751021
ĠJones 1750489
Ġpresent 1749114
ĠBe 1748662
Ġdouble 1746718
Ġrose 1743712
ite 1742168
Ġability 1741205
Ġoriginal 1738365
Ġdead 1738002
ĠCommission 1737002
ĠMe 1736027
Ġcompetition 1728990
Ġ2011 1728933
Ġknew 1728096
Ġmaterial 1728026
av 1727522
ĠFrance 1726170
Ġscore 1724711
Ġsense 1724643
Ġserious 1722884
Ġconfirmed 1718878
Ġanti 1718690
Ġviolence 1717832
Ġimprove 1717445
son 1716265
Ã³ 1715772
ĠAP 1713237
Ġsh 1712990
Ġhost 1712089
ĠMike 1711510
Ġpatients 1710985
ĠNFL 1710681
Ġcrisis 1710660
Ġrevealed 1710486
ach 1710125
ĠPrime 1709921
Ġbuilt 1709734
ĠNot 1706520
Ġrules 1705945
Ġelse 1704583
Ġdepartment 1703887
Ġitself 1703108
ise 1702332
500 1699595
Ġcomplete 1697348
ion 1696098
Ġtrial 1694758
ĠBay 1694438
ĠDec 1692697
Ġattention 1692185
Ġtravel 1691819
ĠCentral 1688571
ry 1687198
Ġagreed 1687182
Ġmind 1686158
ĠMc 1680689
Ġ70 1679080
Ġcontact 1678829
ari 1676341
ĠTimes 1676203
Ġspot 1675550
ĠFrench 1675316
Ġgets 1674431
op 1671943
Ġbrand 1671300
Ġcalls 1671224
Ġbanks 1671141
Ġdesign 1670636
Ġsafe 1670469
Ġoffers 1670223
Ġpractice 1669888
ĠOf 1669751
Ã¡ 1668766
ling 1668112
Ġtrue 1664853
off 1664159
Ġnumbers 1663984
Ġfun 1663233
Ġlearn 1661698
Ġmultiple 1659449
ĠIs 1658760
res 1658023
als 1655097
Ġcommon 1654452
ized 1654129
Ġchallenge 1653889
Ġcommittee 1651423
ĠOur 1651313
Ġbase 1651054
ani 1650840
ĠAssociation 1650681
ung 1649743
Ġnetwork 1647955
ĠBrown 1645141
Ġapproach 1644786
16 1644622
Ġfinished 1644557
Ġreview 1643559
Ġrequired 1641242
Ġapp 1640066
ĠMan 1639116
ĠâĢ¦ 1637219
twitter 1635903
ĠDemocratic 1635697
13 1635611
Ġevening 1633463
ĠTom 1632566
Ã¤ 1632005
ĠAssociated 1631124
ĠCanadian 1630774
Ġcollege 1630130
Ġspokesman 1629814
Ġarticle 1628267
Ġtowards 1627540
ĠChicago 1624633
Ġmovie 1624226
14 1621531
ity 1620770
Ġforces 1620487
ĠChris 1618946
ĠDemocrats 1618827
Ġfeatures 1618817
Ġhearing 1618654
ĠX 1617375
ĠAlso 1616971
Ġmessage 1614077
age 1613939
Ġnoted 1612988
ĠSuper 1611458
Ġthousands 1611246
aw 1609966
ĠBill 1609655
ĠAr 1608211
ĠLa 1605650
ip 1602489
Ġ/ 1600656
ĠDuring 1600558
Ġnote 1599819
.) 1599485
Ġwrong 1597905
if 1597790
Ġpassed 1596713
ĠTwo 1595012
Ġdie 1594232
,' 1591856
ĠDon 1591768
ĠGermany 1590377
Ġletter 1589189
Ġdescribed 1587932
ĠIran 1587210
ĠWilliams 1587158
Ġparticularly 1586303
Ġadd 1584930
Ġconversation 1584119
ĠSe 1582810
Ġhighest 1582438
be 1582111
Ġhomes 1581323
Ġsports 1579275
Ġgone 1578369
ĠAd 1578106
Ġel 1575560
Ġopportunities 1574356
Ġwords 1574032
Ġleaving 1572178
ĠChristmas 1570930
As 1567616
ĠGovernment 1564834
Ġsimply 1563465
Ġhusband 1561859
ĠResearch 1560941
ĠMexico 1560570
ates 1560524
ale 1560250
ĠGreen 1559413
$ 1558890
od 1558286
ĠHall 1557386
Ġnatural 1557204
Ġoperating 1556430
les 1555089
ations 1553100
ĠKim 1552435
Ġgold 1550400
ok 1550363
Ġprovides 1550026
( 1548704
ell 1548541
Ġbegin 1548436
ĠParty 1544415
back 1544125
ĠAmazon 1543528
19 1542997
Ġmajority 1540855
ĠEven 1539970
Ġcheck 1539205
Ġweather 1536595
Ġorganization 1535736
Ġstories 1530812
ĠCar 1530386
Ġforced 1528607
ĠGeorge 1527678
Ġwalk 1527637
ong 1527207
Ġfiled 1527072
ĠJustice 1526999
Ġlaunched 1525342
Ġoffered 1524952
Ġwww 1524876
Ġconstruction 1524376
ĠBen 1523931
Ġserved 1523249
Ġ... 1522609
Ġparts 1522133
Ġcancer 1521795
Ġguys 1521634
Reporting 1521590
ash 1521212
less 1518704
Ġleadership 1515641
ĠCommittee 1515536
Ġregular 1515150
Ġcouncil 1513200
Ġcars 1513115
ĠDirector 1512226
Ġjudge 1511945
Ġvictims 1510725
ĠDaily 1508429
Ġkept 1506853
Ġeffect 1505561
Ġbeyond 1504974
pm 1504340
Ġtalking 1503790
Ġconsidered 1503516
ore 1502511
ĠAdvertisement 1501599
Ġst 1500357
ED 1499155
Ġmiddle 1498266
Ġraise 1496420
we 1496386
Ġclaimed 1496009
ino 1495099
Ġalleged 1494843
ĠPro 1494107
ĠScott 1494014
ĠOct 1493772
Ġconsider 1493385
ĠShare 1492850
Ġtraffic 1492643
ĠAfrican 1489374
Ġcouldn 1488249
Ġtoward 1487987
Ġsearch 1487864
But 1487614
Ġlaunch 1485195
Ġinjured 1483477
That 1482854
Ġalthough 1481993
Ġactivities 1481365
Ġchanged 1481356
Ġsources 1481211
Ġmissing 1480648
Ġu 1479315
Ġ35 1479269
Ġcover 1477903
ised 1477126
Ġ| 1475368
ow 1474128
ES 1473723
Ġdecades 1473119
ich 1473092
Ġcaused 1473078
Ġelections 1472792
ane 1472346
IS 1471634
Ġfeet 1471454
ĠBar 1470321
Ġversion 1468500
Ġgrow 1466759
Ġvehicles 1466160
Ġoptions 1465868
Ġindividual 1465495
Ġenvironment 1464549
ĠRobert 1464208
ĠValley 1463903
ĠFrom 1462903
per 1461357
ara 1459805
Ġsystems 1459758
Ġprotect 1458557
ĠKing 1458359
Ġinjuries 1458176
Ġfinally 1458132
Ġnuclear 1457686
40 1456407
Ġratio 1455853
Ġgun 1453972
ĠPakistan 1453898
ĠManagement 1453728
ĠAir 1452597
ce 1452384
Ġopposition 1451483
ment 1451045
ick 1450197
Ġpro 1449819
Ġact 1449119
Ġplatform 1448585
Ġlack 1447520
Ġpair 1447492
Ġ500 1447286
Ġcalling 1446385
ary 1444813
Ġprograms 1444800
Ġscheduled 1442047
Ġfast 1440630
Ġjoined 1440467
ĠWar 1439368
ĠEditing 1438860
ĠSince 1438062
ĠRyan 1437307
ĠMac 1435643
ĠBig 1435094
ĠLake 1434841
Ġdigital 1431868
When 1430928
ue 1430530
Ġassets 1430070
Ġseeing 1429963
ĠAct 1429101
Ġpartner 1428466
ĠBoard 1426982
Ġbeginning 1426439
Ġsupply 1425739
Ġmiles 1425400
Ġprison 1423320
ons 1423301
ĠAmericans 1423143
ub 1422979
ĠOr 1422620
me 1422545
Ġbenefits 1422191
Ġbenefit 1421600
Ġmeasures 1421418
Ġhear 1421044
Ġparties 1419983
Ġsuccessful 1419806
ĠJust 1419508
Ġvictim 1418665
Ġblock 1418078
Ġlimited 1417918
Ġtrip 1417278
ĠPeople 1416914
Ġserve 1415979
Ġart 1415603
ism 1415013
Ġwide 1413700
ĠSch 1413465
Ġ80 1411855
ĠThomas 1410605
Ġ90 1410072
Ġstocks 1409152
Ġgirl 1408914
ĠAsia 1406591
Ġseeking 1406131
Ġcertainly 1402106
ĠServices 1401550
ĠCollege 1401292
Ġcommunities 1399444
Ġextra 1399224
Ġ2010 1399104
ness 1399004
Ġholding 1398370
ous 1395487
Ġtough 1392661
ade 1392187
Ġmobile 1391611
Ġowns 1390973
ĠDo 1390969
ĠFire 1390483
Ġspoke 1389181
Ġreturned 1386980
Ġsize 1384925
Ġcriminal 1384339
ĠInstagram 1383934
Ġoffering 1383767
ĠGod 1383582
ĠService 1380537
Ġpage 1380319
her 1379345
Ġdeep 1378891
wood 1378669
Ġcrime 1378474
ĠSports 1378135
ile 1377793
ĠGlobal 1377625
Ġproposed 1375001
ain 1374575
Ġsession 1374163
ĠFederal 1372598
ĠSyria 1372508
Ġch 1371294
Ġthreat 1370549
Ġallegations 1368619
ĠRepublicans 1367530
ĠGerman 1367016
Ġstrategy 1365243
Ġcommercial 1363461
ING 1362395
ĠSecretary 1361444
Q 1361374
Ġreporters 1360237
100 1359735
ĠCapital 1358672
ĠBoth 1358332
ĠPost 1357419
ĠIsrael 1356699
Ġsave 1356588
ts 1355680
ill 1353287
Ġdrop 1353229
Ġreserved 1351988
ĠMany 1350702
Ġavoid 1350513
Ġ200 1350079
iv 1349984
Ġdamage 1349409
Ġcondition 1347932
Ġdropped 1347611
Ġdoor 1346666
Ġplanning 1346311
ire 1346053
Ġcard 1345538
Ġdesigned 1344045
Ġreduce 1343369
AN 1343288
ĠUn 1342812
ford 1342808
ĠThen 1342552
Ġpic 1340601
ĠCopyright 1340247
Ġrain 1339930
ĠMartin 1339030
Ġdomestic 1338936
45 1338201
ge 1338045
Ġmurder 1337766
Ġspeech 1337492
line 1337438
Ġhelping 1336548
Ġplanned 1336530
Ġfeature 1335611
ud 1334739
Ġtype 1333298
ham 1332891
ĠPublic 1332269
ja 1330873
Ġinsurance 1330694
Ġattacks 1330495
ĠCorp 1330487
Ġforecast 1330119
Ġresources 1329427
ma 1328981
?" 1328763
ĠAm 1326543
ĠSept 1326290
Ġpush 1325119
Ġattorney 1323601
23 1320496
Ġemergency 1318454
Ġwinner 1316365
Ġblood 1316215
Ġnorth 1315678
ĠFeb 1315478
Ġbaby 1314587
Ġfloor 1314066
Ġspend 1314003
Ġex 1313875
Ġdollars 1312722
Ġunit 1312569
ĠHill 1311762
Ġder 1310546
ĠAbout 1310530
Ġalone 1310399
ization 1309798
Ġpresidential 1308208
Ġactivity 1307129
ĠTHE 1303877
ee 1303867
ber 1303388
ĠOther 1302492
Ġowner 1302035
Ġhour 1301722
Ġcities 1301545
Ġanswer 1301512
ide 1300709
Ġfully 1300533
ek 1299815
ists 1299461
Ġcoverage 1298056
Ġvs 1298022
Ġfigure 1297957
Ġpopulation 1296350
org 1296348
Ġsnow 1296290
Ġbecoming 1295463
ĠSam 1294973
ĠCarolina 1291479
Ġjoin 1290537
Ġprofit 1288623
Ġitems 1286675
Ġindex 1286193
Ġanalysis 1285807
Ġtournament 1285579
Ġstake 1285322
Ġperfect 1284996
way 1282901
Ġband 1282603
Ġgirls 1282045
Ġoption 1281458
Ġplays 1281418
oc 1281046
Ġproviding 1280803
ÃŃ 1279703
24 1278908
Ġwouldn 1278857
Ġones 1278431
Ġdeclined 1277991
Ġwritten 1276594
Ġvoters 1276547
Ġcandidate 1275393
Ġsuspect 1274105
Ġpolicies 1273253
Ġpeace 1272413
ast 1272249
Ġparticular 1271480
for 1270835
Ġhopes 1270571
Ġstation 1269217
ĠMost 1269107
Ġspeak 1268901
ĠRiver 1268234
Ġasking 1267826
Ġstatements 1267725
Ġfifth 1266632
ha 1265853
ĠNigeria 1265684
af 1265115
Ġexplained 1265091
Ġbar 1263652
Ġhousing 1263447
ĠSanta 1263276
Ġidentified 1263166
Ġsimple 1261919
Ġcritical 1261278
ĠClub 1261136
ĠSecurity 1258870
ĠLike 1258646
Ġstarts 1258077
art 1257886
Ġstreet 1257299
Ġreality 1257106
Ġheavy 1255854
Ġprogress 1255469
Ġshowing 1255023
Ġchallenges 1254251
Ġban 1253900
Ġcommitted 1253811
35 1253249
» 1252957
Ġdirectly 1252530
Ġaren 1252368
Ġclaim 1252185
ĠWestern 1251484
ind 1251476
Ġgives 1251163
ĠSaudi 1251114
Ġchoice 1250281
ĠTh 1250114
Ġapproved 1249281
Ġlocated 1249176
Ġarrived 1248712
22 1247137
Ġcaught 1245733
Ġprofessional 1244437
Ġmissed 1243796
Ġculture 1241799
ĠYear 1240647
ĠOhio 1240422
ĠLtd 1240210
ĠAnother 1236586
Ġseem 1236065
Ġbelieves 1235634
Ġbelieved 1234227
Ġcharacter 1233277
ĠAug 1232432
red 1231550
Ġfine 1231293
Ġprior 1231023
Ġthinking 1230155
Ġhttp 1229977
Ġ+ 1228431
Ġzone 1227971
Ġputting 1227542
Ġcrash 1227326
ĠAustralian 1226525
ĠAb 1225586
Ġfocused 1225366
ĠREUTERS 1224702
ĠFox 1222773
ĠSp 1222222
Ġtraditional 1222157
Ġanalyst 1221455
Ġwait 1221352
IT 1221192
Ġrequest 1221146
ru 1220070
ians 1219481
ize 1219401
Ġfinish 1219355
Ġlaws 1219079
Ġran 1218169
ER 1218103
Ġsouth 1217930
Ġspeed 1216988
Ġmovement 1216655
Ġassault 1215786
Ġexchange 1214894
Ġappear 1214167
ĠSun 1213380
Ġle 1212646
Ġmaybe 1212582
Ġlosing 1212500
Ġsubject 1212420
ive 1212037
mer 1211602
ĠBusiness 1211287
ĠBl 1211104
Ġappears 1210892
Ġadvantage 1210058
ĠLee 1209984
ada 1209467
ĠUnder 1209089
Ġprevent 1208943
Ġrespect 1208205
Ġsex 1207871
Ġcentre 1205825
ĠJoe 1205245
ado 1205189
Ġtable 1205002
Ġequipment 1204702
Ġfair 1204416
Ġtour 1203481
Ġ32 1202908
ĠFinancial 1202825
Ġcounty 1201690
Ġdevices 1200581
Ġcustomer 1199580
Ġinfrastructure 1199477
Ġexpectations 1199088
Ġfacing 1197258
Ġupon 1196830
Ġcross 1196577
ĠOpen 1196366
AL 1195644
Ġquick 1195640
Ġattempt 1194751
Ġcompleted 1194054
Ġfacility 1193691
Ġconfidence 1192538
ĠSupreme 1192353
Ġpiece 1192118
our 1190907
Ġplaces 1190819
Ġsometimes 1188180
Ġpoor 1188055
Ġstorm 1186942
Ġhot 1186481
Ġaffected 1186075
na 1185977
Ġabuse 1185573
ĠMs 1185148
Ġword 1184210
over 1184197
Ġbrother 1183015
Ġnecessary 1182352
Ġeventually 1182121
ĠStar 1181996
Ġsend 1181687
Ġboy 1181593
ĠRs 1181273
Ġremember 1181150
21 1181067
Ġclimate 1180761
Ġcapacity 1179754
Ġresponsible 1178907
ĠMatt 1178786
month 1178672
Ġsuffered 1178672
%. 1178011
og 1177463
ĠPeter 1177032
Ġ, 1176942
Ġfeeling 1176560
ze 1176366
Ġbuying 1176283
oy 1175669
ij 1175583
Ġbought 1175102
Ġactions 1175019
Ġowned 1174845
Ġ___ 1173449
Ġphysical 1172575
Ġspecific 1172215
Ġbattle 1171044
ĠEnergy 1170042
Ġpicture 1170039
Ġactive 1168934
Ġindividuals 1168605
Ġguy 1168434
Ġregional 1167772
Ġbond 1167088
ows 1166890
ĠToronto 1165644
Ġrule 1164453
Ġdevelop 1163886
Ġcrowd 1163570
Ġguilty 1163432
Ġfemale 1163167
Ġselling 1162084
ĠFollow 1161824
Ġmyself 1161761
ata 1161449
Ġdevice 1160825
Ġreasons 1160664
Ġrecords 1160456
Ġfighting 1160159
ON 1159444
ities 1158633
ĠHome 1158628
Ġstatus 1158586
Ġplant 1158428
Ġdrugs 1157604
ĠChurch 1157265
Ġcompletely 1156679
Ġdisease 1156412
Ġhighly 1154902
ĠParis 1154157
Ġdecade 1154075
Ġowners 1153892
Ġwall 1153701
Ġcamp 1152770
ĠSteve 1152768
Ġreporting 1152716
Ġearned 1152389
ĠImages 1152114
Ġexisting 1151509
ĠSen 1150108
Ġconcern 1149589
Ġhundreds 1149446
Ġsong 1149070
Ġknows 1148604
Ġunique 1146891
Ġlose 1146252
ĠKh 1145728
Ġapproximately 1145147
Ġhaven 1144278
Ġpark 1144184
Ġindependent 1143514
ĠAlthough 1141559
ĠAndrew 1140893
Ġpaper 1140558
Ġdeveloped 1140194
Ġrising 1138944
Ġdirect 1138668
Ġpurchase 1137748
Ġexactly 1137430
Ġq 1136646
Ġmassive 1136361
Ġbox 1136277
Ġchampion 1135186
ĠClinton 1135155
Ġvoice 1134429
Ġarrest 1134183
ĠKorean 1133029
Ġlearning 1132793
ĠVirginia 1131898
Ġsa 1131860
Ġpar 1131777
Ġchairman 1131533
Ġagencies 1131397
Ġhealthy 1131115
ĠThose 1131004
Ġpowerful 1130444
Ġ45 1129425
Ġdifference 1129156
ĠJackson 1129095
Ġenforcement 1129005
Ġdividend 1128381
qu 1128217
Ġenjoy 1128149
Ġruling 1128102
Ġongoing 1128058
Ġsoftware 1126787
ks 1126267
Ġlocation 1123860
Ġmostly 1123334
Ġcandidates 1122772
men 1121714
Ġbroke 1121635
What 1121351
ĠBr 1121162
Ġ2008 1120782
Ġconsumer 1120292
Ġdiscuss 1120153
Ġdi 1119761
Ġprimary 1119543
ĠEn 1118103
Ġgreen 1117991
Ġconcerned 1117193
Ġimage 1116899
ĠPremier 1116227
ĠMeanwhile 1115457
Ġfired 1115417
ĠBoston 1114988
ann 1114768
Ġcamera 1113847
Ġtraded 1113731
Ġhasn 1113054
Ġexcited 1112793
Ġincreasing 1112551
ĠDespite 1111652
Ġcitizens 1111506
Ġeuro 1111148
Ġreportedly 1110529
Ġminute 1110127
ĠWill 1108755
ĠLLC 1108318
Ġsp 1108264
ĠMichigan 1107776
Ġstopped 1107245
Ġeye 1106800
Ġdenied 1106003
Ġmodern 1105998
ĠWall 1105989
Ġdefinitely 1105892
point 1103755
Ġlines 1103085
Ġpolitics 1103013
Ġhotel 1102865
Ġretail 1101995
Ġstated 1101551
ĠOver 1101551
Ġgrew 1101534
Ġbroadcast 1101049
Ġlegislation 1100898
Ġfresh 1100782
Ġbid 1099966
Ġmanaged 1099287
Ġsociety 1099115
Ġscoring 1098471
ĠGet 1097861
Ġintelligence 1097362
Ġholiday 1097102
Ġgovernor 1097019
Ġestimated 1096435
Ġexperts 1096150
ĠJeff 1094500
Ġstruck 1094293
Ġhits 1093101
Ġcarry 1093034
Ġplaced 1092815
Ġstores 1092519
Ġexpressed 1091967
Ġvalued 1091497
Ġad 1090181
Ġtwice 1090022
ala 1088193
Ġdisplay 1088146
Ġusually 1087980
Ġresponded 1087741
Ġdog 1087438
AS 1086770
ĠFed 1085547
Ġ2009 1084848
Ġdocuments 1084155
Ġnormal 1083889
Ġtrain 1083842
Ġfl 1083714
Ġshown 1082905
ĠEd 1082724
Ġsort 1082684
Ġallegedly 1082114
Ġshots 1081913
ka 1080997
Ġaccounts 1080481
Ġyesterday 1079818
Ġcreating 1079514
Ġchurch 1079417
Ġbus 1078936
Ġaward 1078723
Ġequity 1078487
Ġphotos 1078470
Ġ33 1078344
Ġfiscal 1077920
je 1077721
Ġconsumers 1077624
ĠManchester 1077051
no 1076785
ĠKevin 1076621
Ġgain 1076561
Ġcorporate 1076297
Ġcivil 1074645
ĠMiddle 1074406
ally 1073993
Ġsound 1073157
ĠEnglish 1073046
IC 1072456
Ġwinds 1072257
Ġworst 1071604
ĠGrand 1070845
Ġeffective 1070287
ĠIsland 1069447
Ġdrivers 1069445
Ġfan 1069141
pe 1068235
Ġsides 1067211
ĠGo 1066254
Ġclean 1065502
âĢĵ 1065274
Ġtelevision 1064940
ĠJr 1064485
Ġallows 1064180
My 1063907
Ġgreater 1063473
ance 1063051
Ġdecisions 1062933
Ġrestaurant 1062318
ĠHospital 1062317
ĠTr 1062017
Ġbalance 1061829
Ġmph 1060612
Ġkeeping 1059433
Ġseconds 1059425
Ġweapons 1059131
ert 1058768
Ġpain 1058460
ass 1058081
Ġsteps 1056793
ger 1056283
ĠBrexit 1056101
Ġremaining 1055964
Ġbringing 1055924
ure 1055621
Ġweight 1055372
And 1055004
Ġwriting 1054912
Photo 1054492
ĠChristian 1054350
ob 1054156
Ġsport 1054152
Ġfigures 1054038
Ġtrust 1053925
Ġskills 1053559
Ġseat 1052549
Ġfaces 1052045
ck 1052010
Ġborn 1051966
Ġsuper 1051338
Ġfuel 1050757
Ġdel 1050376
Ġmeant 1050365
ica 1050229
Ġjustice 1049898
Ġspring 1049745
Ġkilling 1049627
Ġnegative 1049406
ĠRichard 1048935
Ġund 1048824
Ġfactors 1048697
Ġsigns 1048672
Ġlearned 1048514
ĠGame 1048447
Ġaudience 1048337
Ġdeliver 1047480
Ġillegal 1047160
Ġblue 1047152
Ġscreen 1047020
Ġremained 1046461
Ġannouncement 1045545
IN 1044664
Ġwaiting 1044482
Ġthanks 1044260
Ġimmigration 1043933
ĠFBI 1043837
Ġwarned 1043680
Ġmeasure 1043554
Ġdraw 1042977
Ġpositions 1041224
Ġdebut 1040488
ĠMedia 1040295
Ġallowing 1039785
air 1039594
hen 1039207
Ġmark 1038938
ys 1037936
Ġprepared 1037832
ĠVegas 1037628
ep 1037073
ice 1036988
2018 1036807
Ġdefensive 1036682
60 1036322
ĠBeach 1035818
Ġpulled 1035279
£ 1035250
Ġlawyer 1034370
Ġcast 1033703
Ġsolution 1033561
Ġeyes 1033423
Ġmarketing 1033278
ĠFoundation 1032803
Ġrisks 1032681
ĠToday 1031061
za 1030906
Ġdraft 1030856
Ġice 1029333
26 1028886
ĠHar 1028695
ĠExecutive 1028255
Ġtruck 1027567
ions 1027336
ĠYour 1027246
ĠIreland 1026986
ĠJim 1026926
Ġha 1025854
Ġfear 1025192
Ġ36 1024225
UR 1024017
ĠFord 1023604
Ġwatching 1023023
ien 1022989
Ġstyle 1022342
ĠGood 1021950
Ġwearing 1021750
ĠHouston 1021687
Ġonto 1020561
Ġboost 1020427
Ġapplication 1020053
ĠDan 1019853
Ġspread 1019777
ĠDavis 1018633
Ġstrike 1018578
els 1018565
Ġwind 1017560
Ġinterested 1017207
Ġguard 1016525
Ġmission 1016357
Ġyourself 1016197
Ġoperation 1015998
Ġlarger 1015981
She 1015669
Ġseasons 1015628
28 1015524
27 1015352
Ġrespond 1015337
ci 1015312
ĠCentre 1014743
Our 1014687
Ġnames 1014111
Ġflight 1014058
Ġquarterback 1013953
Ġstandard 1013783
so 1013436
Ġsuggested 1013406
ĠMal 1012403
Ġolder 1011550
ini 1011498
Ġperhaps 1011380
ont 1011159
ĠInstitute 1010585
Ġmillions 1010457
Ġmental 1010415
ÃĤ 1010390
ga 1010100
Ġclients 1010030
Ġplease 1008087
Ġloan 1007595
Ġaware 1007470
ft 1007115
int 1005923
75 1005712
05 1005668
AY 1005214
ĠOut 1004967
Ġhair 1004836
ied 1004024
Ġseemed 1003824
ene 1003335
ty 1002962
NYSE 1002589
Ġoffensive 1001740
Ġtaxes 1001278
Ġinitial 1001170
ren 1001111
Ġseparate 1000558
la 1000426
ĠMiami 999699
AC 999417
Ġclearly 998042
Ġfit 998026
ĠCoast 997343
Ġfirms 996559
Ġpartners 996285
Ġupcoming 995676
Ġcold 995619
Ġproposal 995585
AT 995563
Ġshut 995201
ĠCommunity 995057
Ġnature 994841
ĠSal 994834
Ġbottom 994662
ting 994403
ĠClick 993625
Ġnice 993134
ets 992744
Ġhurt 992199
itt 992013
ama 991685
Ġcarried 991483
ĠCon 990745
rd 990263
Ġestate 989765
ĠLas 989614
ĠLaw 989508
ng 988371
Ġprotection 988139
Ġproduce 988074
Ġcurrency 987559
Ġhappens 987452
ĠPer 986794
ney 986285
ĠLong 986221
Ġfellow 984558
Ġcuts 984477
Ġreading 984317
ano 983370
Ġproud 982970
ost 982830
ĠUN 982772
ĠArizona 981571
AD 981392
Ġhelps 980765
Ġwinter 979270
Ġfinding 978913
ĠGold 978800
att 978520
ĠWhy 978296
Ġbasketball 978242
lin 978236
ĠCan 978235
ĠBowl 978157
ial 977781
ĠAlex 977129
200 976132
AM 975986
Ġpresence 975803
Ġproduced 975620
Ġdeveloping 973722
Ġregarding 973595
Ġdebate 973528
Ġvice 973338
ĠItaly 973073
Ġsu 972909
its 972209
ator 972098
Ġ34 971531
Ġcomplex 971410
Ġpresented 971211
Ġresearchers 970688
Ġslow 970602
ya 969545
Ġsanctions 969002
Ġloved 968990
Ġseek 968941
Ġresponsibility 968828
Ġadmitted 968442
Ġalbum 968256
Ġsolutions 968147
Ġfacilities 967583
ett 967418
ĠGu 966850
ĠWell 966452
Ġlawmakers 966175
Ġmiss 965356
ful 964915
ĠNick 964868
'. 964367
Ġfeels 964311
Ġprime 964187
Ġknowledge 962770
Ġdeals 962681
ĠTaylor 962545
Ġsurvey 961651
ĠFrancisco 961565
Ġjoint 961557
Ġwhom 961454
Ġsit 961250
01 961032
Ġtr 960800
Ġorganizations 960709
ĠAvenue 959982
ĠTheir 959692
ĠTim 959526
Ġrally 959023
game 958754
Ġbigger 958063
Ġlawsuit 958003
Ġrecorded 957693
Ġfavorite 957171
yard 956628
Ġtransaction 956473
Ġqu 955912
oh 955395
Ġinteresting 954203
Ġinflation 954183
ath 954130
Ġstuff 953636
Ġindustrial 952789
ico 951708
TS 951700
Ġspeaking 951539
Ġlosses 950646
ID 950463
ĠStadium 950298
Ġstars 950061
ĠWomen 948694
ĠBlue 948669
Ġwins 948572
Ġdes 948224
Ġcompetitive 947933
ters 947597
Ġpounds 945880
Ġdirection 944428
Ġinnings 944143
ĠBest 944128
Ġactor 943230
Ġdangerous 942533
Ġrequire 942380
Ġplus 941699
Ġsolid 941386
Ġgeneration 940960
Ġstrength 940146
ĠMary 937988
For 937973
Ġplenty 937822
ĠTeam 937750
Ġinfluence 937427
Ġfaced 937286
Ġes 937147
ĠIslamic 936928
let 936623
ĠDevelopment 935685
Ġpath 935633
Ġyouth 935469
Ġcommitment 935057
Ġbeautiful 934554
ĠJack 934220
ort 933976
Ġten 933536
Ġattend 932866
ars 932541
Ã³n 931723
Ġviews 930935
Ġeuros 930513
Ġauthor 929479
Ġcore 929010
Ġsupporters 928630
ĠiPhone 927505
Ġfashion 927246
Ġsmaller 926967
Ġelected 926786
Ġuniversity 926666
Ġpicked 926492
wa 926122
Ġordered 925968
ĠSc 925939
ĠÅ 925871
Ġlargely 925496
+ 925332
ĠAttorney 923747
Ġpaying 923482
AR 922356
Ġconnection 922330
Ġsetting 921904
Ġna 921506
ĠRock 921152
Ġrecovery 921120
ew 920921
Ġserving 919431
Ġsurprise 919370
Ġoccurred 919110
Ġdivision 918894
Ġtelling 918737
Ġmargin 918368
Ġ2020 918249
Ġsister 918125
ĠNBA 918086
Ġvoted 917508
Ġcon 917495
By 916915
Ġ49 916460
Ġfoot 916128
Ã¼ 915995
ĠTurkey 915749
Ġamazing 915052
Ġcombined 914971
Ġappearance 914915
Ġeasily 914319
DAY 913487
Ġnotes 913429
ĠStart 913428
Ġlanguage 913013
Ġextremely 912882
Ġcloudy 912761
ĠLet 910594
Ġdelivered 910482
Ġimproved 910007
Ġcollection 909361
ĠPM 908576
Ġestimates 908460
Ġboys 908043
izing 908025
Ġtext 907987
Ġcloser 907839
Ġprotest 907697
Ġprovince 907013
Ġshop 906605
Ġsmart 906397
de 906049
ĠSheriff 905857
EN 905839
Ġcorner 904072
Ġpanel 904029
Ġbooks 903727
Ġsupported 903439
Ġmentioned 902769
ver 902136
ĠMinistry 902096
ĠPrince 901510
ĠUSA 900786
Ġreceiving 899911
Ġchoose 899655
ĠIN 899638
ĠSpain 899334
Ġsection 899101
Ġconsidering 898959
ĠCor 898743
Ġwish 898430
Ġwelcome 898339
ĠConference 897821
ere 897616
ĠOfficer 897375
Ġhoping 896852
Ġportfolio 896741
Ġstandards 896175
Ġgrand 895533
ĠReal 895290
Ġsecure 895254
ĠCorporation 895030
ĠRep 894640
ĠKelly 894615
Ġstreets 894614
Ġsitting 894579
Ġslightly 894347
ĠInvestment 893427
99 893154
ond 893020
Ġunits 892646
Ġvotes 892425
Ġsegment 890849
Ġchampionship 890553
Ġsquad 890099
iting 889484
ron 889246
® 888842
Ġem 888161
Ġtouch 887959
Ġ38 887887
Ġceremony 887847
Ġdecide 887321
Ġapproval 887173
So 886955
ĠPort 886599
Ġsub 886537
Ġsc 886491
Ġrep 886222
ĠWeek 886169
Ġupper 886128
Ġagree 886028
ny 885374
Ġmatches 885097
ics 884923
Ġtweeted 884441
Ġheat 884043
ĠGreat 884013
Ġpenalty 883818
Ġmass 883556
Ġalongside 883275
Ġherself 883182
berg 883053
Ġscience 883041
Ġentered 882775
Ġappeal 882436
ĠPr 881949
Ġfile 881816
che 881208
ĠReport 881038
ĠThree 880486
ĠNorthern 880373
ĠJordan 879936
Ġamid 879935
Ġpace 879473
Ġjail 879394
Ġfinance 879106
ĠYoung 878827
32 878148
Ġwilling 877919
Ġconduct 877629
ĠPar 877507
Ġestablished 876005
Ġreturns 875894
Ġaid 875719
Ġinternet 875515
IA 875493
29 875161
Ġmeetings 875055
Ġwarning 874958
ĠCl 874561
Ġcampus 874327
Most 874065
ĠFund 872959
ĠWilliam 872862
ĠJapanese 872487
Ġconsensus 870460
Ġbrain 869034
!" 868380
Ġpoll 868202
Ġtech 868159
Ġtrend 867690
Ġpotentially 867596
Ġreduced 867298
ĠShow 867126
Ġ37 866142
Ġhappening 865387
ĠBrazil 864999
pl 864993
ĠCal 864291
Ġcovered 864182
Ġenter 864008
TV 863857
Ġcatch 863148
foot 862499
Ġunion 862493
Ġexpansion 861461
ĠSingapore 861355
ĠDetroit 861121
Ġattended 861100
ats 860833
Ġnewspaper 860823
ĠDivision 860382
news 860061
Ġcap 859861
Ġremoved 859080
Ġ48 859011
ĠRoyal 858777
Ġwindow 858591
Ġparking 858536
Ġdark 858325
Ġstanding 857740
Ġupdate 857441
Ġagent 857174
Ġtransfer 856996
ĠArmy 856847
Ġuses 856775
80 856495
ĠTe 856106
Ġintroduced 855994
Ġmale 855834
ĠSouthern 855330
Ġratings 854644
Ġisland 854557
ĠMiller 854365
Ġteachers 854340
Ġadvice 854336
Ġfamiliar 854118
uf 854067
Ġsought 852548
Ġpor 852383
ĠEric 852355
Ġda 852095
Ġideas 851873
uh 851550
Ġsixth 851095
Ġtalent 851086
ĠImage 850942
ering 850652
run 850210
ments 849624
Ġconducted 849584
300 849045
Ġurged 848152
Ġdiscovered 847489
Ġpl 847417
Ġunderstanding 847319
Ġoffense 847057
Ġsecretary 846873
Ġsk 846615
Ġloans 846038
ĠGr 845644
Ġapplications 845479
Ġcrude 844971
go 844313
ĠInstead 844072
Ġopinion 843875
Ġdoubt 843858
ey 843654
Ġdis 843545
31 843221
Ġexperienced 843160
Ġleg 842710
ĠCleveland 842643
ven 842221
Ġfailure 841971
market 841811
ack 841635
Ġdecline 841423
Ġchanging 841175
Ġ300 841140
Ġdefence 840353
ĠBrian 840105
Ġdelivery 840023
Ġmarried 840017
Ġdeclared 839897
Ġpull 839591
Ġlimit 839528
ĠMORE 839205
Ġdefeat 839201
Ġexpand 839187
ĠColorado 839060
ĠRob 838918
iss 838741
Ġworse 838458
Ġperform 837460
ising 837330
Ġ2007 836110
ĠDel 836033
Ġsurgery 835422
Ġeasier 835155
Ġmaintain 834254
ĠEx 834211
Ġtied 834201
Ġeast 834128
Ġuser 834105
ola 834100
Ġprogramme 834017
Ġmanufacturing 833943
Ġhitting 832798
Ġx 832447
Ġskin 832285
Ġartist 831767
Ġtells 831698
Ġnearby 831649
ĠDaniel 831440
ĠPower 830985
Ġdetermined 830546
Ġactual 830203
Ġtreated 830154
Ġlived 830060
Ġcomputer 829493
Ġcool 829215
oo 829204
ĠPl 828544
Ġeffects 828260
Ġenvironmental 827480
ĠMorgan 827295
Ġflow 826828
Ġachieve 826416
ĠBell 825942
Ġtesting 825116
ĠBob 824590
Ġwhatever 824275
ĠBecause 824215
US 823809
ĠHollywood 823728
Ġconflict 823668
Ġwalking 823643
ĠJudge 823355
ĠAlabama 821977
Ġaircraft 821613
Ġte 821459
well 820973
Ġgoods 820798
Ġidentify 819328
Ġassociated 819177
ĠVer 819129
ĠEducation 819089
Ġairport 818965
IL 818654
Ġfalling 818425
Ġgiant 818176
ĠMa 818066
ĠMedical 817761
Ġride 817656
Ġden 817307
º 817287
ĠJose 817284
Ġwest 817216
ĠPacific 817116
Ġvisitors 817105
ĠWatch 816562
ĠNations 816504
Ġgains 815781
Ġschedule 815760
34 815662
ĠExchange 815187
Ġpayments 814872
ĠII 814870
70 814832
No 814350
ĠSyrian 813767
ĠAdam 813673
Ġne 813572
Ġpartnership 813503
Ġbl 813483
ĠGeorgia 813085
Ġsites 812590
Ġmodels 812572
Ġdegree 812555
Ġdetermine 812273
ĠWilson 812230
Ġcontest 811932
Ġprofessor 811897
ĠChelsea 811787
Ġmeaning 811551
ĠGames 811486
ĠTrust 811062
ĠAsian 810523
33 810014
Ġlink 809891
ĠUp 809207
Ġholds 808813
ĠTop 808800
ĠItalian 808021
ord 807549
ĠKansas 807304
Ġfarmers 807238
Ġextended 806891
Ġbirth 806605
Ġreform 806503
Ġrelations 806460
Ġwrite 805935
Ġsupporting 805854
55 805436
ita 804945
Ġnotice 804496
ster 804386
Ġanimals 804360
ĠJersey 804223
Ġarm 803968
ĠForeign 803949
ĠLife 803913
Ġtruly 803565
ĠOnce 803237
ĠMayor 802720
ĠFree 802701
ĠAgency 802397
ĠWood 802066
Ġpassing 801361
DA 801279
Ġ52 800879
Ġmoves 800742
Ġcom 800726
house 800624
ĠIts 800619
Ġmarijuana 800412
ines 800086
Ġveteran 800083
Ġvariety 800014
ki 799519
ff 799506
amb 799341
Ġlisted 799162
Ġpushed 798834
Ġvolume 798667
Ġincreasingly 798460
Ġkick 798303
Ġrock 797726
ank 797583
Ġfees 796913
Ġenable 796371
Ġimages 795916
Ġtruth 794949
Ġministry 794566
Ġrare 794495
ĠDallas 794334
ĠMinnesota 793766
Ġcontributed 793455
ĠCharles 792793
Ġpercentage 792586
Ġtechnical 792041
ĠApp 791816
Ġassistant 791720
Ġinterests 791490
Ġimmediate 791434
38 791227
ĠTown 791148
Ġclosing 791129
ĠAnthony 790868
Ġsouthern 790696
ase 790467
ĠPutin 789428
ĠForce 789411
ba 789054
Ġrefused 788825
ĠStill 788498
ix 788331
ĠCol 788130
Ġmaterials 787166
Ġstructure 787122
Ġdriven 787107
Ġpatient 787081
Ġbroken 787003
Ġradio 786478
Ġscale 786472
Ġreplace 786159
Ġ39 786066
ĠLand 786013
Ġdeputy 785808
und 785162
Ġcolor 784947
OS 784189
Ġroads 783553
Ġcorruption 783425
ĠRose 783310
Ġemployee 782938
ĠWater 782700
Ġseats 782584
Ġwalked 782551
ec 782040
Ġcents 781941
Ġchain 781716
Ġpayment 781638
ĠAndroid 781181
eb 780911
Ġcommission 780630
Ġthrow 780526
Ġcount 780449
Ġaccident 780376
Ġexpensive 779996
ered 779555
ĠYes 779048
ĠLouis 778906
Ġstudies 778657
Ġinvestigating 778494
Ġcentury 778292
Ġdiscussion 778205
Ġinter 778126
DAQ 777912
ĠBefore 777318
Ġinitially 776881
* 776842
Ġinvestments 776693
Ġmulti 776583
Ġtight 776513
Ġconfident 776178
Ġcounter 776103
ĠQu 776075
Ġgovernments 775817
Ġarmed 775626
Ġsuit 775178
Ġrow 775047
Ġlocations 774442
Ġepisode 774370
itch 774332
Ġyounger 774232
Ġfestival 773951
Ġpitch 773426
ĠOF 773066
Ġtalked 772959
ca 772667
Ġprotests 772525
Ġtargets 772421
90 772119
Ġoriginally 771881
Ġsinger 770622
Ġjourney 770508
ug 770301
Ġapply 770174
Ġteacher 770100
Ġchances 769730
): 769416
Ġdeaths 769323
isation 769037
ĠStephen 769031
Ġcode 768787
ĠChampionship 768289
ĠJason 768073
ĠAT 768005
Ġaccept 767894
ĠSeries 767851
Ġvalues 766903
Ġbed 766842
ĠHarry 766046
Ġflat 765987
Ġtools 765434
Ġpublicly 765147
37 765137
Ġpointed 765125
ĠGolden 765069
ps 765005
Ġunable 764849
ants 764634
Ġestimate 764295
Ġwarm 764221
Ġbasic 764076
ern 764058
Ġraising 764028
ĠRelated 763246
Ġultimately 763231
Ġnorthern 762640
Ġplane 762319
ĠVice 761718
ĠRaj 761408
ĠJustin 761174
anc 761045
Ġbrings 760963
ĠArt 760869
OT 760818
Ġshift 760799
ĠBBC 760780
ĠSu 760726
BS 760542
Ġbag 760457
Ġdoctor 760190
Ġfill 760142
Ġdowntown 760093
Ġpossibility 759875
ĠAg 759865
Ġest 759355
44 759301
Ġstruggling 759298
Ġlinked 759148
Ġtickets 759113
ĠJay 758708
ĠCall 758705
Ġstands 758275
Ġwedding 758002
Ġresident 757773
eng 757483
Ġleads 757289
Ġadvance 757079
ĠAtlanta 756527
Ġtie 756521
Ġadvanced 756459
pt 756319
burg 756132
ĠEarlier 756084
ĠSw 756028
ĠZealand 755576
Ġexercise 755366
ĠAM 754873
Ġaffect 754598
Ġpossession 754588
Ġinvolving 754253
Ġ42 753725
Ġwriter 753428
ĠBeijing 752903
Ġdoctors 752784
Ġobviously 752766
Ġer 752571
ĠOlympic 752163
Ġ75 751927
ĠKhan 751848
ĠFort 751735
app 751409
like 751243
Ġsea 750911
ock 750739
Ġmix 750547
ĠIraq 750126
ĠMuslim 750060
ĠFinally 749906
Ġcontinuing 749744
Ġpr 748051
ĠKe 747968
ĠJoseph 747911
Ġexpects 747877
Ġinstitutions 746778
Ġconservative 746619
own 745833
ĠChairman 745585
Ġreturning 744764
.- 744587
Ġstood 744070
Ġvision 743492
ess 743484
Ġadults 743166
Ġyield 742528
Ġprove 742339
Ġorders 742335
Ġdream 741518
36 741505
related 740788
Ġsl 740736
Ġeverybody 740643
ui 740546
Ġrepresents 740253
Ġdiscussed 740189
Ġbecomes 739395
Ġvillage 739189
CC 738959
Ġnegotiations 738518
ĠPhiladelphia 737741
Ġcelebrate 737228
Ġfarm 737201
Ã§ 736827
Ġregistered 736756
ĠGovernor 735530
OL 735395
ĠMon 735274
Ġfiling 735097
04 734685
SE 734061
ĠAssembly 733791
Ġactress 733714
Ġsi 733497
Ġthank 733377
Ġheading 733374
ĠWho 732693
Ġfamous 732401
Ġconsecutive 732355
Ġmarriage 732267
ette 732242
NAS 731947
acks 731814
ĠPlease 731703
ĠDiego 731638
Ġbaseball 731189
ĠMoore 731155
Ġties 731144
Ġcarrying 730530
que 730422
Ġturning 730269
ĠMcC 730199
ĠKen 729814
OR 729749
ĠStock 729418
Ġbuildings 729243
49 729192
ĠVan 728880
39 728538
ĠSeattle 728480
Ġwild 728371
Ġcrew 728288
Ġroute 728140
ĠTime 727744
Ġtonight 727410
Ġmoments 727311
Ġvideos 727283
Ġinternal 726788
ĠLiverpool 726787
port 726665
Ġchair 726571
Ġrival 726201
ĠScotland 725568
round 725461
ith 725294
Ġbreaking 725203
Ġvoting 725026
ically 724457
Ġproducer 724076
ĠLove 723335
Ġremove 722493
PA 722266
Ġasset 722136
Ġrequires 722080
Ġsigning 722004
ages 721984
Ġimpressive 721541
ĠIrish 720983
Ġauthority 720956
Ġruled 720855
Ġaimed 719936
Ġcaptain 719841
AG 719610
Ġplants 719284
ĠAnderson 719163
ĠSpanish 718765
Ġbanking 718515
Ġthreats 718161
Ġsuspended 718152
Ġtests 717916
Ġreligious 717914
Ġelectric 717844
ĠREAD 717534
Ġstrategic 717274
Ġsplit 717236
ex 716980
Ġpractices 716881
ĠIsraeli 716690
ĠArabia 716454
ĠMoscow 716415
Ġfranchise 716353
Ġcustody 715896
ĠOld 715743
Ġrequirements 715340
Ġquarterly 715294
Ġcomfortable 715292
Ġcrimes 715229
Ġheaded 715036
Ġnewsletter 715014
Ġanimal 714833
Ġregulations 714813
long 714437
ĠCNN 714414
Ġassists 714321
Ġshopping 714169
ĠGov 714150
ĠSecurities 713833
Ġassistance 713647
Ġnor 713298
Ġrelatively 712933
Ġincreases 712932
Ġgenerally 712823
Ġ55 712740
Ġgained 712707
Ġ41 712606
Ġpictures 712473
gan 712471
Ġpop 712265
Ġupdates 712229
ĠRepublic 711631
Ġrebounds 711614
ĠPatrick 711387
Ġrelief 711334
Ġacting 710271
ĠFestival 710047
Ġ2006 709820
Ġboss 709698
Ġtypes 709005
65 708450
ĠYet 708208
Ġpurpose 707891
ning 707799
Ġmatters 707724
Ġcompete 707652
ball 707449
ĠRam 707015
Ġsw 706866
ĠFollowing 706655
ĠBush 706560
Ġtroops 706382
Ġsupposed 706268
Ġfreedom 706167
Ġfeatured 706036
Ġstorage 705550
ĠInformation 705375
ĠHong 705084
Ġgolf 704724
Ġagents 704581
Ġfraud 704389
Ġminimum 704007
Ġartists 703955
Ġeat 703878
high 703551
ĠFormer 702956
ĠKong 702931
ĠJosh 702631
ĠDelhi 702625
Ġshowers 702438
ĠAcademy 702251
Ġapartment 702211
Ġvan 702082
Ġfish 701971
oe 701821
Ġfilms 701292
ĠBo 700210
Ġedge 699668
Ġpossibly 699547
Ġtweet 699148
09 698934
Ġresolution 698857
jo 698407
Ġkill 698189
Ġ44 697622
Ġcell 697571
Ġscheme 697392
Ġth 697012
Ġbonds 696907
Ġentry 696441
Ġsecret 696066
Ġ43 696036
Ġending 695756
Ġweren 695647
ĠCredit 695601
ĠLive 695511
Ġretired 695470
Ġmachine 695347
Ġsummit 695318
Ġsharing 695309
Ġacquired 695162
Ġera 695128
Ġwear 694770
ical 694642
07 694435
Ġexciting 694205
li 693789
BC 693766
ĠSocial 693676
Ġhistoric 693519
ĠChe 693316
ĠLewis 693096
ira 693080
Ġstolen 692938
ĠSpeaking 692900
Ġsleep 692679
Ġspokeswoman 692396
week 692058
Ġpurchased 692022
Ġimportance 691879
EC 691761
Ġends 691684
Ġdress 691662
Ġparliament 691355
ĠCruz 691341
Ġcards 691092
hi 690849
ĠEmail 690723
Ġrepresent 690285
Ġbrands 690269
ĠSenior 689530
Ġparticipants 689244
Ġfly 688667
Ġidentity 688418
ĠHam 688195
ĠSky 688173
ĳ 687921
SA 687761
Ġpromised 687681
Ġtrouble 687636
Ġsuffering 687577
Ġleaves 687373
Ġsuggest 686507
Sh 686452
Ġbusy 686263
Ġproperties 686261
Ġworldwide 686110
Ġcloud 685683
ĠSEC 685582
Ġclosely 685513
Ġmanage 685094
Ġnumerous 684986
Ġbackground 684945
ĠExpress 684560
Ġ65 684453
ĠTony 684446
ĠMadrid 684416
ev 684197
der 684138
Ġsignificantly 683609
Ġalternative 683395
Ġship 683378
head 683376
ators 683346
Ġdinner 683283
ax 683245
SC 683136
Ġcriticism 682901
ĠMah 682762
ĠMin 682313
rie 682278
ĠTour 681791
Ġbench 681768
Ġadds 681693
Ġseriously 681081
star 681064
ĠJournal 681060
ĠDi 680976
ali 680890
Ġsentence 680734
ĠSeveral 680648
Ġmayor 680619
ati 680607
Ġsuggests 679833
Ġbehavior 679756
Ġstronger 679646
ĠFood 679542
Ġclient 679522
not 679367
ĠPrice 679365
Ġtargeted 679346
ĠSingh 679217
ĠNetwork 679157
Ġprosecutors 679007
Ġdirected 678757
ĠDemocrat 678632
bl 678453
ues 678119
ĠFamily 678117
Ġconnected 678031
ĠChampions 677968
Ġroughly 677870
Ġabsolutely 677819
08 677816
Ġpassengers 677754
Ã¶ 677581
ĠSpecial 677515
Ġcoast 677389
Ġcomplaint 677269
Ġ400 677160
ĠEm 677074
ves 676751
Ġdogs 676610
Ġhandle 676453
Ġotherwise 676409
Ġsees 676369
Ġticket 676354
ĠAward 676149
All 676053
Ġtask 675868
Ġsongs 675866
ĠAmong 675784
Ġdedicated 675714
Ġsteel 675679
looking 675527
Ġshortly 675521
Ġtackle 675505
ative 675302
Ġminor 675287
Ã¢ 674880
Ġprovider 674860
vers 674447
use 674392
ives 673897
Ġtypically 673886
Ġarms 673784
ĠAnt 672730
ĠIS 672440
Ġjump 672381
ĠÂ© 672248
47 672245
aff 672175
Ġmonthly 671458
ĠMicrosoft 671453
ĠCBS 671373
Ġthreatened 671203
Ġhonor 671159
ĠMo 671110
42 670879
Ġinning 670847
Ġpool 670801
Ġhealthcare 670739
ĠStory 670409
ĠTennessee 670223
Ġpromote 670222
EL 670219
Ġemotional 670090
Ġpe 669934
Ġfactor 669916
Ġinvestigators 669908
Ľ 669379
ĠBack 669251
ĠProject 668785
Ġcu 668708
side 668686
Ġmessages 668678
TH 668611
eg 668559
Ġexperiences 668440
Ġcausing 668008
Ġjoining 667710
Ġpackage 667687
Ġbodies 667645
Ġlots 667255
ĠHarris 667109
Ġcl 666906
ĠInternet 666658
free 666453
Ġperformed 666445
Ġpieces 666201
buy 665807
Ġcaption 665802
Ġweb 665716
Ġcontracts 665686
At 665632
Ġattempted 664859
Ġunlikely 664609
Ġclick 664497
Ġinvest 664191
IM 663800
ĠView 663747
Ġneighborhood 663677
Ġring 663380
ĠFour 663306
ail 663284
46 662971
One 662873
Ġnative 661915
CH 661810
OM 661713
Ġalcohol 661134
ĠVal 660739
Ġcharacters 660236
ĠPat 660141
Ġpoliticians 660107
ĠMag 660028
Ġbegins 660004
ĠAk 659896
Ġlos 659867
Ġpersonnel 659526
Ġenjoyed 659308
ĠTechnology 659019
Ġsun 658938
ĠIT 658854
Ġdocument 658518
Ġdeficit 658016
Ġcoalition 657789
Ġmemory 657734
Ġpushing 657606
any 657505
ified 657491
Ġfounder 657490
Ġ2000 657349
2017 656930
Ġvisited 656751
ĠThough 656405
ph 656119
Ġsoft 656036
Ġflag 655720
Ġmom 655638
inch 655599
ĠSamsung 655550
Ġapps 655530
Ġtouchdown 655020
ĠCare 654911
ĠMrs 654748
Ġredistributed 654696
Ġencourage 654624
ched 654207
Ġtend 654145
Ġregions 653660
pp 653525
IP 653521
br 653489
ush 653176
Ġargued 653134
Ġjunior 652994
BA 652906
Ġsevere 652838
ĠNIGHT 652638
Ġdef 652479
Ġsurrounding 652418
48 652110
Ġengine 651930
Ġfilled 651795
Ġseventh 651686
Ġbattery 651683
ĠAllen 651412
Ġguidance 651044
Ġroll 650886
Ġrural 650673
Ġexpert 650661
Ġconvicted 650642
Ġlikes 650470
ĠRo 650455
Ġgrown 650225
Ġretirement 650100
Ġintended 649726
Ġmis 649605
Ġarmy 649179
Ġdance 648905
ĠThank 648709
Ġent 648620
Ġoutlook 648453
Ġpara 648415
Ġdry 648264
ĠTO 648185
era 648182
Ġwaste 647962
Ġfaster 647898
ĠEagles 647830
TA 647672
ĠFrank 647399
Ã 647382
LE 647133
ura 646394
ko 645847
ao 645597
Ġdistribution 645495
Ġimprovement 645143
Ġplayoff 645117
Ġacquisition 645054
ĠCH 644976
Ġtomorrow 644729
Ġstruggle 644334
ĠHuman 643753
Ġnewly 643717
oon 643595
ĠNe 643406
con 643192
sc 643014
Ġunless 642555
Ġtransition 642064
ten 641982
ĠInter 641671
Ġequal 641591
Ġrec 641444
Ġappointed 641281
Ġwake 641155
ĠEarth 640797
ose 640764
ĠEastern 640747
Ġsoldiers 640537
ĠParliament 640494
Ġsets 640471
Ġattempts 640152
ĠIllinois 639933
Ġrevenues 639843
ĠWil 639596
Ġheads 639411
Ġprepare 639410
Ġpriority 639341
PS 639284
ĠJo 638828
ĠNBC 638798
Ġtherefore 638678
yn 638657
Ġinitiative 638643
ct 638361
Ġcoffee 637744
ĠFair 637600
43 637533
den 637504
form 637481
ova 637167
Ġappropriate 637079
ĠPlay 637040
Ġaccepted 636820
Ġcreative 636136
Ġfollows 635912
Ġrescue 635639
Ġtree 635306
With 635231
ĠNetflix 635104
ĠFootball 634959
Ġsurprised 634887
Ġlowest 634863
800 634829
amp 634729
Ġworried 634441
mar 634388
ran 633768
Ġvisiting 633760
Ġselected 633090
ĠMusic 632916
ĠAnn 632595
Ġexplain 632496
ging 632345
Ġwidely 632173
Ġsquare 632141
Ġtrends 632026
Ġimproving 631604
ĠHead 631579
ĠQueen 631579
ĠSociety 631466
Ġcutting 631250
ĠGOP 631244
03 630513
', 630499
ET 630481
ĠDrive 630365
oll 630358
ato 630267
ĠSea 630202
Ġjury 630065
ĠRights 629920
Ġinvestor 629850
ĠABC 629838
Ġtool 629691
ĠAre 629583
Ġrejected 629251
Ġemerging 629198
Ġcounts 628987
Ġnations 628837
Ġfalse 628805
Ġtreat 628682
va 628532
Ġweak 627964
ĠHighway 627859
down 627520
Ġstruggled 627385
ĠMP 627359
Ġguests 627124
Ġgender 626755
Ġhouses 626600
rit 626519
ĠWild 626487
Ġstreak 626346
uc 626246
ĠReserve 625949
ĠRatings 625284
alt 625099
Ġgreatest 624750
Ġlawyers 624573
Ġreaching 624449
Ġtemperatures 624337
To 624302
Ġoutstanding 624213
Ġpasses 624036
Ġfaith 623978
inc 623886
Ġcr 623705
Ġinformed 623554
oz 623553
Ġtrees 623194
Ġsending 623063
Ġ150 623002
bo 622758
Ġwine 622309
ros 622270
Ġsuspected 621960
Ġrepeatedly 621930
Ġhat 621661
Ġshape 621547
ĠWh 621467
Ġassist 621167
Ġstress 621125
Ġfeed 620985
ark 620572
ored 620506
Ġwatched 620486
Ġincredible 620245
cl 620179
nt 620017
Ġentertainment 619828
ih 619512
Ġbeauty 619500
Ġbi 619289
ĠLocal 618874
Ġsat 618818
41 618659
Ġbroad 618496
Ġheavily 618484
Ġengaged 618134
Ġspecifically 617900
ĠMen 617790
ĠRoss 617491
Ġ2005 617361
ST 617024
95 616847
Ġdownload 616792
400 616539
Ġsentenced 616236
ĠCatholic 616232
ĠOklahoma 615972
Ġthrew 615869
Ġworry 615816
Ġimp 615766
Ġdrove 615359
Ġcolleagues 614764
Ġagenda 614423
64 614200
ĠEach 614089
Ġfee 613977
New 613640
ium 613292
Ġspokesperson 612953
Ġbills 612648
Ġ47 612576
ĠAfghanistan 612282
Ġinvited 612232
ĠYouTube 612155
Ġanniversary 612106
Ġdozen 611893
ram 611851
ĠOnly 611662
Ġemployment 611457
Getty 611425
Ġgap 611246
Ġsweet 611220
ĠLittle 611085
Ġinf 610976
ying 610958
Ġglass 610796
Ġclasses 610555
Ġcoal 610530
ĠSub 610027
Ġduty 610008
CA 609961
Ġcoaches 609752
Â 609368
anna 608871
ĠSk 608867
Ġ46 608742
ison 608691
ille 608543
ĠST 608510
ric 608225
Ġparticipate 608152
Ġequ 608008
Ġrich 607857
Ġrespectively 607798
Ġexpenses 607780
Ġcombination 607464
right 607304
Ġshareholders 606852
Ġturns 606712
Ġearn 606653
Ġ51 606329
ured 606222
Ġdrink 606105
ĠKar 605871
ĠShares 605838
ĠMid 605645
ĠGetty 605240
Ġbridge 605204
lo 604950
Ġinspired 604769
Ġsurface 604529
Ġgift 604164
ence 603974
Ġchallenging 603879
Ġoffices 603658
Ġsuspects 603599
ĠFinance 603523
Ġab 603404
bound 603393
Ġmomentum 603312
Ġbacked 603136
Ġparent 602954
Ġcrucial 602780
ave 602661
Ġdealing 602594
Ġregulatory 602587
Ġapparently 602572
ĠMat 602536
Ġapart 602409
Ġport 602094
ole 602075
Ġbeach 601222
Ġcultural 601095
Ġinstitutional 601040
Ġbeating 600883
ĠIowa 600845
ĠAli 600838
67 600815
Ġje 600279
ays 600247
Ġweekly 600115
Ġbirthday 599932
Ġpipeline 599822
Ġknee 599458
Ġsolar 599380
ĠPe 599358
Ġcategory 598751
ĠArea 597864
ky 597750
ures 597599
06 597138
ĠBall 596982
Ġsemi 596904
ĠHamilton 596881
hip 596523
ĠPh 596400
ĠNext 596161
Ġathletes 595892
ii 595769
Ġmovies 595606
han 595338
net 595268
Ġplastic 595160
Ġbehalf 595058
gen 594694
Ġfindings 594645
Ġstretch 594423
ĠSa 594361
Ġofficially 594360
ĠSarah 594265
Ġprivacy 594145
ĠMad 594120
Ġnone 594063
gh 594019
On 593801
Ġdrama 593750
ĠFl 593244
ika 592972
ĠArsenal 592565
Ġviolent 592522
UN 592362
called 592237
59 591789
Ġhate 591294
Ġrelationships 591198
Ġgranted 590915
ĠJon 590914
Ġlisten 590867
season 590717
Ġfewer 590682
GA 590639
ĠLabour 590581
Ġremarks 590079
ĠJonathan 590075
ĠRos 589454
sey 589171
ĠOntario 588862
ĠThompson 588414
ĠNight 588100
Ġranked 588072
ĠUkraine 587817
Ġimmigrants 587507
Ġdegrees 587415
ĠGe 587239
Ġlabor 587061
umb 587040
ĠYORK 586814
Ġallies 586670
sp 586647
hed 586590
sw 586160
Ġtariffs 586009
SP 585944
Ġclassic 585900
Ġawards 585788
ents 585509
Ġfix 584968
Ġsoccer 584697
Ġconcert 584641
ust 584638
Ġadult 584624
Ġoutput 584498
Ġmanaging 584320
02 583791
Ġpromise 583506
Ġawareness 583285
Ġgross 583073
Ġentering 583031
Ġpo 582797
oj 582777
Ġmetal 582612
Ġexit 582572
Ġexcellent 582333
Ġclubs 582289
hold 582278
Ġreplaced 582062
ĠClass 581857
Ġscientists 581711
Ġprimarily 581516
ĠMer 581509
Ã£o 581004
Ġcircumstances 580810
ades 580376
Ġsupplies 580198
aker 579900
ĠSand 579873
Ġscandal 579847
Ġsettlement 579795
ĠWisconsin 579534
ĠWarriors 579424
ĠAustin 579369
Ġjournalists 579350
ening 579267
Ġreflect 578683
ĠBuy 578236
ĠAwards 577988
Ġselection 577910
ĠBel 577882
bury 577459
Ġtechnologies 577435
%, 577388
ime 577286
ĠÄ 577196
ĠAdministration 577150
Ġchannel 577063
Star 577045
Ġtransport 576905
Ġawarded 576880
ena 576869
Ġmotor 576838
orn 576832
kin 576522
Ġfeaturing 576137
Ġphones 575883
ĠAND 575872
Ġrelevant 575845
ĠSee 575497
Ġwinners 575465
Ġdad 575415
ĠSource 575406
ĠCheck 575321
aut 575187
ĠFar 575130
Ġopponents 575061
Ġoutcome 574976
Ġdoors 574691
Ġsuicide 574574
ima 574574
Ġjumped 574439
Ġperspective 574049
Ġtransportation 573897
Ġthinks 573740
ĠMor 573724
Ġdeadline 573413
Ġ53 573384
ĠDeputy 573316
ery 573275
Ġdetailed 573211
uch 573111
ĠBur 573030
Ġtrades 572959
ĠGreg 572682
Ġzero 572577
erson 572533
ĠChildren 572530
Ġdu 571991
66 571520
Ġmixed 571498
ĠBarack 571494
54 571420
Ġterritory 571339
Ġac 570961
Ġconcept 570900
ĠAdd 570854
Ġourselves 570838
Ġreaction 570838
ĠSydney 570745
ink 570627
Ġconsistent 570552
Ġboat 570361
room 570118
Ġdozens 569921
Ġeffectively 569894
but 569706
Ġmotion 569701
Ġalive 569555
ĠKey 569475
weight 569359
Ġexports 569196
Ġoperate 569167
Ġregime 568628
ĠAuthority 568580
och 568324
ĠCR 568107
leg 568100
Ġforget 567784
American 567697
bs 567507
Ġthoughts 567414
ĠSign 567337
ĠPatriots 567326
Ġbrief 567190
ĠOregon 566704
ĠBal 566670
Ġmine 566437
Ġciting 566156
Ġmagazine 565967
more 565654
ERS 565544
ĠBer 565286
ua 565089
ox 565068
ĠMain 564935
Ġinstance 564912
tr 564896
Ġrestaurants 564748
ora 564629
Ġharassment 564192
"," 564111
Ł 563468
Ġsilver 563415
ĠMueller 563337
ĠSenator 563249
ĠEvery 563038
Ġfootage 562781
ms 562010
Ġopposed 561513
ĠLink 561321
Ġver 561303
Ġpleased 561199
ame 561037
ending 560925
Ġrivals 560911
ida 560808
ike 560722
ta 560191
ĠCook 560155
Ġheadquarters 560098
ear 559924
Ġaggressive 559912
Ġcourts 559794
ĠMuseum 559778
Ġim 559407
ĠHoldings 559385
Ġcommunication 559306
Ġphase 559275
yl 559165
Ġpowers 558799
Ġproved 558731
Ġcarbon 558119
Ġaside 558055
ĠOlympics 557913
Ġgathered 557817
ĠPennsylvania 557707
Ġsmartphone 557593
ĠMet 557506
ĠHurricane 557248
Ġprotected 557017
Ġcommunications 557002
Ġemerged 556662
Ġaim 556646
Ġstable 556554
ides 556326
GB 556319
Ġentirely 556167
Ġmissile 556070
ĠGen 556063
Ġunclear 556034
Ġelectricity 555748
ology 555400
away 555325
Ġlicense 555146
ĠPittsburgh 555106
Ġcameras 554642
Ġmusical 554555
Ġmanagers 554385
57 554378
Ġscores 554300
Ġprofile 554151
hel 553814
¼ 553526
Ġshouldn 553151
RA 553102
); 553022
Ġpermanent 552759
ome 552707
Ġet 552637
Ġmar 552623
Ġfavor 552550
Ġmaker 552434
Ġdiscussions 552378
ory 552358
Ġsharp 552200
Ġpleaded 551865
Ġpassenger 551642
quarter 551605
Ġdem 551592
Ġversus 551540
Ġmainly 551212
Ġeighth 551193
ĠAirport 551066
ĠCross 551013
million 550991
ĠNas 550854
Ġcited 550845
56 550594
Ġyes 550539
ĠBelow 550504
arn 550432
ĠTurkish 550249
ĠSl 550052
Ġstepped 549946
Ġproducers 549714
Ġovernight 549671
Ġsounds 549218
52 549159
Ġ64 549109
Ġ54 548618
58 548511
ĠClark 548307
ĠRick 548096
Ġgr 547793
ĠMont 547523
Ġbeer 547457
une 547406
Ġreporter 547200
Ġcharity 546805
Ġeating 546767
Ġextend 546746
Ġguess 546694
NA 546644
Ġhedge 546641
Ġencouraged 546192
owned 545927
ĠMel 545745
ĠKentucky 545469
ace 545369
Ġlineup 545195
Ġhosts 545040
Ġcapable 545014
PR 544806
ĠArts 544790
Ġcontroversial 544636
Ġhosted 544575
ries 544421
Ġroster 544408
Ġfixed 544383
ĠWalker 544328
ged 544322
Ġdisaster 544293
Ġdispute 544173
ĠDenver 544121
ĠTrade 543949
ute 543728
ese 543554
cy 543517
Ġgrant 543327
ĠMax 543269
Ġdistance 543261
isc 543194
Ġeditor 543083
ĠDave 542754
Ġperformances 542612
Ġlay 542534
Ġvulnerable 542457
ĠMurray 542022
ĠâĤ¬ 541880
Ġmining 541784
Ġ2004 541671
level 541589
ability 541522
Ġauto 541394
Ġfake 541248
Ġattacked 541184
ona 541159
ups 541155
ened 541039
Ġfallen 541013
Ġstations 540742
ĠContact 540629
itz 540466
Ġincidents 540401
Ġcomplaints 540209
Ġoperates 540174
Ġrefugees 540103
Ġessential 539847
ĠTest 539816
Ġdemands 539668
Ġroles 539559
yr 539392
Ġacts 539382
Ġusual 539231
ring 538825
Ġhanded 538815
ĠMatthew 538759
hour 538636
Ġindustries 538499
Ġshoot 538256
ĠAuthorities 538096
Ġprobe 537997
ĠUtah 537811
ĠRBI 537713
ĠAD 537666
Ġprospect 537532
outs 537514
ĠUber 537300
Ġbright 537023
Ġmention 536803
Ġsavings 536746
ĠMiss 536720
ONDON 536644
Ġ1990 536574
arm 536539
ĠTen 536507
These 536324
Ġexplains 536289
minute 536287
85 536164
Ġmaximum 535772
Ġro 535624
Ġrookie 535597
Ġstudio 535259
ĠCam 535243
ĠGal 534858
Ġdefend 534801
hand 534397
53 534235
ĠOil 534227
Ġserves 534109
Ġsn 533926
ios 533674
ĠDefense 533656
AB 533613
Ġhired 533598
Ġsupports 533518
Ġpremium 533415
ef 533390
Ġfailing 533388
ĠIndiana 533319
Ġexp 533218
Ġobjective 533117
Ġaffordable 533048
ĠCom 533045
ĠThanks 532804
Ġanywhere 532747
Ġconfirm 532571
ited 532480
Ġrepresenting 532443
Ġwitness 532320
69 532276
Ġclaiming 532164
Ġviolation 532078
Ġhistorical 531928
med 531903
Ġpreparing 531822
ĠTech 531776
Ġposts 531720
OC 531705
ĠGraham 531460
ĠGl 530938
ĠLions 530797
ales 530459
ĠID 530342
Ġcorrect 530119
ĠAntonio 530088
Ġadvertising 529987
Ġeastern 529970
OW 529729
Ġholdings 529657
Ġpolls 529501
ĠSH 529484
Ġexecutives 529322
ĠJewish 529169
ĠGary 529025
Ġprize 528842
ĠCommissioner 528815
Ġcells 528726
ify 528689
Ġlunch 528383
Ġdemocracy 528093
ĠEr 527765
Ġregularly 527727
Ġresulted 527617
ĠAve 527594
ĠPartners 527540
Ġrewritten 527445
Ġlo 527425
Ġcooperation 527174
ĠGulf 526987
Ġsmoke 526948
ĠMemorial 526831
Ġwave 526760
Ġfears 526687
Ġkid 526686
ĠGiants 526659
Ġrecovered 526627
row 526618
ĠRadio 526430
ĠBarcelona 526406
Ġwonderful 526264
ĠDow 525942
Ġstream 525894
ĠSimon 525883
Ġdetail 525813
Ġvolunteers 525338
ĠInd 525254
Ġforms 525204
mann 525200
ĠRay 525179
oor 525099
ĠTake 525047
Ġrepresented 524960
het 524802
Ġblow 524696
aged 524345
RE 524290
ĠMissouri 524211
Ġcovering 524148
Ġprofits 524099
Ġconcluded 523969
Ġthus 523792
ĠColumbia 523601
ode 523601
ĠZimbabwe 523309
Ġdisclosed 523284
Ġlifted 523201
ĠSean 523027
ĠHarvey 522826
ĠPlus 522727
ces 522579
ĠGreece 522535
ĠLady 522489
Ġdelay 522363
Ġkitchen 522137
ĠIndex 522119
Ġbear 521979
Ġputs 521897
new 521789
88 521714
ĠAsh 521599
Å¡ 521575
Ġperforming 521286
law 521053
ĠPart 521051
Ġindicated 521013
Ġannounce 521007
Ġcompensation 520903
Ġka 520845
ĠScience 520632
ris 520625
Ġrecommendations 520466
ĠSecond 520396
Ġlights 520298
Ġtemporary 520208
urs 520004
Ġwestern 519633
stone 519510
68 519421
ĠDisney 519326
Ġplayoffs 518862
Ġjudges 518833
Ġengineering 518717
ĠPen 518708
ĠPal 518680
Ġobvious 518674
ĠBridge 518362
ĠEnd 518131
ĠArab 518124
Ġexcept 518039
Ġhole 518016
class 517787
Ġcauses 517709
Ġconnect 517645
ĠAI 517437
An 517381
Ġchose 517300
ĠElizabeth 517255
min 517164
Ġproper 516848
ĠNHL 516274
Ġraces 516120
Ġinnovation 516115
Ġsugar 516105
600 516100
ĠModi 516058
illa 515800
Ġtrillion 515724
ĠSar 515494
ĠAffairs 515424
Ġimpossible 515194
Ġguide 515174
Ġcaptured 515166
ĠSales 515143
Ġspecies 515073
51 514677
Ġar 514618
Ġmaster 514534
Ġstayed 514511
iro 514162
ĠEconomic 514146
Ġvast 513815
ili 513591
Ġpet 513532
ye 513355
77 513090
Ġkeeps 512788
ĠPhil 512710
ĠEPS 512667
ĠRegional 512605
Ġsectors 512591
Ġdesire 512519
ĠStanley 512493
¾ 512466
Ġunknown 512393
Ġpot 512303
ĠPR 512061
Ġknowing 511802
Ġflying 511766
ĠTreasury 511721
iers 511719
enn 511536
ably 511242
Ġsick 511134
Ġmanner 511062
Ġmanufacturers 511039
Ġchampions 511016
gy 510851
Part 510829
ister 510698
ĠMountain 510663
Ġimagine 510625
Ġportion 510571
ĠCamp 510480
Ġchemical 510406
ible 510365
ĠAnaly 510309
ĠBureau 509866
Ġpm 509800
Ġupdated 509717
Ġetc 509652
ĠField 509651
iles 509566
Ġobtained 509531
Ġstick 509528
Ġcat 508985
har 508778
Ġmarked 508579
Ġmedium 508348
ĠDes 508256
People 508150
Ġwealth 508134
ores 507942
ĠBaltimore 507712
Ġtip 507083
Ġdismissed 506565
ĠVictoria 506541
ĠBrad 506538
Ch 506318
Ġ56 506203
Ġstadium 506177
eth 506150
Ġthunder 506070
Ġtested 505868
Ġdrawn 505805
Ġcounsel 505672
ld 505540
Ġspirit 505375
uss 505338
Ġtheme 505231
my 505189
Ġnecessarily 505079
Ġelements 505035
Ġcollected 504840
ĠRes 504583
ĠMaryland 504401
ĠEnter 504379
Ġfounded 504300
ae 504287
Ġpilot 504015
Ġshoulder 503963
PC 503954
Ġargument 503944
Ġyen 503835
Ġreceiver 503821
Ġharm 503723
ĠET 503716
Ġprotesters 503534
Ġ72 503491
ĠAaron 503393
Ġed 503219
Ġexpecting 503123
":" 503095
Ġbike 503020
Äĩ 502957
Ġluxury 502866
half 502619
ĠBarbara 502602
Ġfoundation 502599
Ġill 502372
Ġsubmitted 502353
Ġdeeply 502332
Ġhospitals 502329
ĠBJP 502311
Ġshock 502208
Ġplatforms 502166
Ġsummary 502156
ĠWhere 502075
Ġcelebration 502028
iff 501896
Ġveterans 501750
Ġachieved 501681
fl 501584
Ġactivists 501562
ĠManager 501326
Ġformal 501173
Ġformed 501158
Ġinvestigate 501143
ĠKyle 501138
Ġ: 501137
ĠRa 500930
ovic 500926
Ġdrinking 500875
Ġnetworks 500769
ĠAlexander 500732
ĠOs 500182
Ġ) 500098
Ġbomb 500074
Ġrecalled 499839
ito 499728
ient 499598
Ġrepresentatives 499365
ĠChrist 499236
ĠWay 499083
Ġdeadly 498859
Ġinvesting 498759
ĠRussell 498613
Ġconsumption 498161
Ġharder 498100
Ġbail 498050
Ġcritics 497940
Ġdanger 497889
Ġdrew 497683
ĠSol 497668
Ġcopyright 497660
ĠHenry 497651
Ġbuyers 497583
Ġresidential 497494
Ġmaintenance 497418
pr 497098
Ġmarks 497057
Ġages 496804
Ġcovers 496736
Ġton 496519
Ġtitles 496340
ĠPS 496156
ĠEvans 496122
Ġmigrants 496080
Ġflights 496070
Ġmonitoring 496047
Ġaddressed 495805
Ġvital 495517
Ġcontrolled 495493
Ġweapon 495458
Ġinches 495218
Ġreduction 495080
Ġurban 495033
Ġcoaching 494968
Ġreducing 494871
ila 494813
Ġrealize 494662
Ġmeat 494574
Ġref 494209
Ġoverseas 493769
Ġblame 493741
Ġterrorist 493306
Ġstuck 493293
ĠUs 493280
esh 493031
pro 492861
Ġ58 492809
ough 492743
Ġexposure 492488
ĠAbu 492423
state 492395
Ġproviders 492153
Ġfore 492046
Ġjet 491967
bar 491932
Ġownership 491889
ret 491713
Ġupset 491667
Ġfacts 491609
Ġpurchasing 491582
Ġreforms 491546
Ġriver 491532
Ġsomebody 491506
Ġguest 491476
iy 491425
Ġauction 491164
ĠReading 491143
Ġconsequences 491116
Ġrepresentative 491069
Ġappointment 491017
add 490863
Ġcollaboration 490713
ĠTesla 490511
ĠCohen 490479
Ġengagement 490449
Ġspeaks 490055
EST 489970
Ġexposed 489941
Ġmaintained 489939
rs 489894
Ġdating 489840
ĠProgram 489617
board 489349
Ġracing 488745
Ġpension 488681
ign 488430
iti 488377
ĠFive 488145
Ġextensive 488138
ĠHa 488058
ĠPoint 488041
ĠMexican 487804
Ġexpanded 487778
Ġtotally 487683
Ġinvestigations 487574
ĠOrleans 487515
Ġcycle 487362
ĠESPN 487277
ifying 487133
Ġcup 487039
ĠAz 486957
ĠInvestors 486923
Ġengage 486827
reg 486497
Ġfought 486454
Ġterrorism 486382
Ġblocked 486188
ĠOK 486080
Äį 486017
72 485991
Ġdestroyed 485950
« 485842
Ġstaying 485787
Ġafford 485706
Ġappearances 485511
ĠHills 485358
Ġcrore 485315
Ġstrategies 485172
Ġtips 485169
ĠSm 484771
ĠFr 484754
Ġbanned 484652
ĠSon 484648
ask 484477
Ġlimits 484430
Ġrecognition 484269
Ġeligible 484258
ĠGar 484152
Ġvolatility 483866
Ġlaid 483650
nes 483348
Ġgrade 483026
ĠRE 482958
ĠHart 482881
Ġ57 482880
oma 482805
Ġuncertainty 482529
Ġrecognized 482355
ĠPC 482302
Ġchosen 482262
uz 482204
Ġadviser 482102
una 481874
Ġassessment 481792
Ġreveal 481713
mo 481572
After 481497
ĠBro 481392
ĠOff 481272
Ġpeak 481197
Ġreferred 481109
ĠSC 480706
Ġ2003 480672
ification 480629
Ġshutdown 480570
ĠOfficials 480558
ias 480540
Ġextreme 480335
Ġflood 480290
Ġhockey 480181
Ġwage 480013
ĠNet 479977
Ġdamaged 479829
Ġreplacement 479704
ĠMaria 479703
Ġcreation 479693
Ġguns 479643
aci 479575
Ġworker 479249
do 479147
Ġviewers 479146
Ġseed 479045
sts 478902
Ġtouchdowns 478863
Ġmistake 478667
ray 478511
ull 478152
Ġpricing 478149
Ġstrongly 478062
Ġaims 477941
ĠNavy 477889
ĠEgypt 477835
ker 477730
Ġve 477700
ĠSteven 477668
Ġres 477633
ational 477246
Ġrequests 477223
Ġemissions 477114
ĠArena 477035
uma 476747
ĠAtlantic 476592
hr 476530
ĠAFP 476449
ĠSquare 476256
Ġcontribute 476237
Ġfunction 476190
Ġdec 476049
ĠNelson 475823
89 475813
Ġreferendum 475808
ĠPre 475740
Ġapplied 475421
ĠGMT 475263
ĠIranian 475232
ĠNigerian 474914
ĠAny 474829
NG 474740
Ġacknowledged 474711
Ġreferring 474548
Ġventure 474527
Ġimports 474409
Ġblog 474295
Ġfutures 474213
OU 474053
ĠUFC 473925
Ġneither 473703
Ġextension 473678
hes 473675
ĠMed 473515
76 473492
Ġsustainable 473405
ains 473258
Ġreputation 473017
ĠVancouver 472996
Ġbasically 472990
acy 472948
Ġsad 472885
ĠFrancis 472759
ĠKennedy 472745
ĠNevada 472716
ĠLu 472567
ras 472500
ĠAv 472211
Ġrear 472197
ĠHo 472194
Ġproperly 472192
abe 471976
ĠHotel 471900
Ġopinions 471819
under 471755
ĠStation 471505
ĠFOR 470986
ops 470738
Ġadopted 470623
ĠSwiss 470281
ĠCountry 470152
ĠTer 469939
ĠAndy 469887
Me 469869
ĠCooper 469852
ĠTigers 469530
ĠCreek 469357
Ġgay 469084
iner 468913
ĠAN 468876
Ġbird 468810
lla 468776
ĠKate 468472
ĠPet 468256
ni 468202
Ġprospects 468151
ater 468066
ites 467943
Ġescape 467872
lam 467645
ake 467455
Ġ1980 467379
ĠLag 467300
Ġsuccessfully 467213
Ġdistricts 467106
Ġministers 466738
aries 466697
Ġframe 466627
ĠON 466578
ĠEuro 466078
ĠMarkets 465915
Ġregister 465902
Ġdefeated 465804
Ġdevelopments 465503
Ġninth 465313
Ġquiet 465263
Ġgenerated 465238
Ġvaluable 465232
Ġrecommended 465210
ĠTheatre 464964
ĠCap 464929
bed 464826
Ġreference 464756
Ġease 464493
oring 464477
Ġ66 464418
Ġimprovements 464331
Ġelsewhere 464290
ĠHillary 464075
Ġdefender 463887
ĠRight 463863
zy 463530
Ġcomprehensive 463411
Ġspotted 463148
ĠOakland 463029
ĠOk 462915
ĠSystem 462736
ique 462731
Ġpersons 462634
Ġexist 462592
Ġbroader 462312
Ġclinical 462185
Ġ2001 462019
oul 462006
Ġsecurities 461943
ghan 461812
Ġshelter 461652
ero 461506
ATED 461437
Ġhosting 461340
Ġselect 461227
ĠKavanaugh 461196
Ġrestrictions 461097
osa 461014
Ġyields 460751
ĠLA 460711
Ġ59 460685
Ġwonder 460580
Ġabsence 460543
Ã¼r 460407
ÅĤ 460212
DP 460155
Ġelectronic 460099
Ġillegally 459295
Ġmicro 459246
ĠNEW 459131
Ġhall 458997
Ġaged 458947
Ġtemperature 458826
cast 458808
atic 458735
Ġlegacy 458723
Ġaffairs 458635
ji 458614
ĠResources 458453
Ġgang 458443
winning 458408
Ġattending 458352
aro 458342
Ġfriendly 458206
aine 458203
Ġcannabis 458191
Ġairline 457686
Ġnoting 457682
Ġprofessionals 457653
ĠFREE 457496
RC 457166
Ġfinancing 457165
Ġindependence 457133
ved 457130
Ġresulting 456764
Ġsteady 456653
ĠWinter 456482
uring 456379
Ġhoped 456339
98 456215
Ġpresentation 456203
aya 456195
Ġrated 456192
osh 456183
ĠAnalysis 455976
= 455976
Ġdonations 455911
IR 455897
Ġcombat 455773
ĠHoward 455449
anda 455325
79 455145
Ġinvested 455082
Ġexpanding 454949
omb 454810
ress 454802
ble 454655
Ġjournalist 454543
ĠWoods 454518
Ġcenters 454507
ott 454428
Ġstreaming 454423
Ġterror 454342
Ġsustained 454177
ĠWWE 453973
pre 453730
ÅŁ 453702
ait 453681
Ġarrival 453562
Ġresidence 453362
Ġextent 453357
Ġarrive 453334
Ġ2002 453271
Ġestablish 453245
74 453216
ĠArgentina 453141
ĠDem 453137
inn 453109
aud 453072
ĠNCAA 452997
Ġquestioned 452891
Ġballot 452784
Ġmin 452773
Ġlandscape 452756
Ġhorse 452719
Ġopponent 452444
iel 452351
Ġprompted 452321
atory 452256
Ġlift 452236
Ġassociation 452129
cher 452086
Ġdefending 451878
Ġtiny 451838
Ġpoverty 451813
ĠSafety 451812
Ġpetition 451678
ĠLimited 451647
ĠCA 451557
FC 451508
Ãł 451387
oni 451369
Ġmonitor 451350
ÃŃa 451218
MA 450985
Ġanswers 450645
ĠMitchell 450579
Ġbo 450407
ĠShah 450182
Ġsm 450118
Ġmedal 450047
ĠCivil 449889
Ġrecognize 449873
key 449697
Ġpregnant 449668
Ġspots 449447
ante 449438
Ġacademic 449184
Ġinitiatives 449140
Ġsecured 449125
ĠCL 449025
ils 449014
Ġanticipated 449007
Ġinvolvement 448958
ĠMake 448930
Ġinsisted 448906
ĠWales 448691
Ġclothing 448621
Ġtracks 448582
Ġsymptoms 448524
Ġplate 448475
ĠNY 448428
Ġretailers 448391
ĠPan 448383
Ġfled 448323
Ġquoted 448316
Ġsaved 448262
ĠCarter 448231
Ġteaching 448200
ĠTokyo 448123
ĠCr 448020
ĠSix 447968
ĠPicture 447947
Ġrecover 447942
Ġcomedy 447848
ree 447787
Ġstrikes 447706
ĠSanders 447623
sel 447620
Ġgraduate 447512
Ġpending 447352
St 447226
Ġwarrant 447095
Ġhonest 446729
ĠGM 446617
Ġnoticed 446454
ĠGalaxy 446194
ider 446147
Ġproposals 446139
Ġwore 446021
Ġindeed 445908
EM 445780
ĠChannel 445687
ances 445635
ĠBrady 445631
86 445604
Ġgotten 445507
Ġthrowing 445478
ĠLeader 445477
ĠVideo 445150
71 445065
Ġwelcomed 445057
NEW 444997
Ġfairly 444996
Ġpromises 444967
ĠSilver 444957
Ġrape 444924
Ġopener 444912
ares 444847
ĠSir 444827
making 444817
Ġcur 444803
Ġrooms 444736
73 444625
Ġamounts 444594
ĠIndustry 444560
ĠDar 444513
Ġ62 444458
ted 444222
Ġabroad 444039
ĠMaybe 444008
Ġreaders 443956
oke 443644
Ġpublication 443623
ĠJean 443607
Ġoperator 443581
ĠHaving 443530
ĠMil 443497
life 443486
Ġgenerate 443421
ĠCraig 443389
ĠMass 443287
ĠBh 443281
Ġrequested 443098
Ġcrazy 442919
ĠSpace 442895
Ġcopy 442855
Ġexport 442654
Ġcontext 442633
Ġbr 442626
62 442517
ĠRobinson 442432
Ġcyber 442326
ENT 442279
BI 442207
arg 442188
Ġspeaker 442053
Ġdramatic 442033
ĠOl 442002
ĠMill 441858
Ġtrained 441583
Ġediting 441523
Ġsalary 441423
Ġdirectors 441268
Ġexplore 441201
Ġlucky 441165
Ġprominent 441056
Ġbrothers 440989
Ġneck 440970
icht 440747
ĠWatson 440610
born 440540
Ġproven 440442
Ġprincipal 440162
Ġedition 440089
Ed 440088
Ġswitch 439983
maker 439973
Ġrelative 439845
mi 439807
ĠBruce 439726
ho 439603
ĠScottish 439537
water 439349
ĠSport 439335
ĠKings 439236
ĠCollins 439225
adi 439199
Ġcelebrated 439161
Ġclothes 438925
Ġsunny 438892
ĠCharlotte 438862
ees 438853
Ġscenes 438775
ĠData 438757
Ġwounded 438692
Ġunusual 438514
Ġrealized 438377
ĠPlan 438336
ĠTrans 438299
ĠFC 437970
Ġletters 437917
Ġalerts 437790
ĠWarren 437753
DS 437656
oss 437502
pping 437344
Ġsuspension 437203
Ġbenchmark 437071
ĠAcc 437018
Ġalert 437015
Ġpassion 436901
ĠEst 436677
Ġlatter 436653
Ġstability 436578
Ġarts 436530
Ġpursue 436510
ĠSeason 436436
Ġfields 436299
Ġmethod 436290
63 436196
Ġfolks 435903
Ġexclusive 435896
Ġcrews 435627
Ġsessions 435619
ĠMajor 435599
ĠMount 435553
Ġmap 435372
Ġ= 435152
Ġsituations 435125
ĠBerlin 434750
rey 434663
Ġdates 434529
Ġsheet 434332
ĠLo 434291
Ġfighters 434203
ĠMart 434045
Ġatmosphere 433968
Ġillness 433856
Ġcompeting 433721
ĠChristopher 433690
ĠRoy 433586
mm 433537
iano 433505
Ġge 433496
ĠRams 433356
Ġconversations 433334
ĠPa 433238
ĠTel 433209
Ġappreciate 433171
78 433088
ĠTotal 433029
low 432997
ĠStone 432869
Ġopposite 432716
Ġbarrel 432689
Ġdevelopers 432658
Ġexpress 432291
Ġhighs 432239
which 432224
par 432086
ĠVietnam 431880
Ġblocks 431848
Ġrecording 431812
Ġadjusted 431752
Ġret 431721
ĠAR 431708
Ġmilitants 431573
Ġinnovative 431521
ĠGhana 431122
FR 431081
Ġfantastic 430972
Ġmortgage 430905
ando 430798
ĠLane 430612
ises 430394
ĠÂ 430367
Ġhomeless 430242
ĠKal 430177
Ġapproached 430165
Ġrounds 430158
Ġmargins 429817
ament 429681
ĠMotor 429646
Ġencouraging 429472
ÂŃ 429457
uru 429425
Ġhandling 429321
ĠMassachusetts 429303
Ġplanet 429164
ĠSpring 429150
ĠBon 429111
gu 429109
Beat 428999
Ġdrawing 428967
ĠPhoenix 428904
very 428758
aid 428731
ĠSte 428648
ĠEntertainment 428630
ĠRon 428307
Ġassigned 428274
ĠSA 428107
News 428077
Ġinterviews 428002
ĠOh 427967
media 427858
vel 427844
Ġpermission 427618
Ġtransactions 427570
Ġtraders 427336
Ġsolo 427179
Ġprovincial 427119
Ġsuggesting 427061
¡ 427057
Ġdiverse 427023
Ġ67 426906
Ġranks 426806
ĠFre 426803
Ġfavourite 426752
Ġ63 426716
Ġdifferences 426665
Ġtargeting 426582
Ġactors 426474
Ġ76 426470
icated 426393
Ġcollect 426292
akes 426099
war 425935
Ġcontained 425894
ches 425887
Ġlibrary 425825
Ġsegments 425817
ĠLine 425796
Ãª 425781
ual 425679
Ġbags 425517
Ġfactory 425445
Ġear 425439
Ġsomewhat 425414
Ġrail 425354
ĠUP 425316
ula 425219
ĠNiger 425071
Ġlas 425025
Ġimplementation 424954
Ġemails 424883
kel 424792
wing 424745
Ġadvised 424621
-- 424384
istic 424271
Ġdepth 424188
Ġshoes 424179
ĠJennifer 424166
Ġvenue 423890
Ġcontain 423764
Ġhighlights 423708
Ġcapabilities 423613
Ġprocesses 423523
Ġtradition 423314
Ġcontacted 423255
Ġproducing 423211
Ġtrail 423111
rem 423038
Ġ600 423032
Ġ68 422993
AA 422979
ĠBa 422972
ĠSuch 422938
ĠTyler 422812
ipp 422673
Ġsurvived 422479
ami 422372
ĠContinue 422115
Ġcapture 422012
bi 421985
61 421820
96 421787
Ġthreatening 421771
Ġkeen 421760
dale 421541
Ġtrailer 421468
Ġstages 421435
ĠGordon 421416
Ġfinishing 421415
Ġlegislative 421149
Ġuseful 421005
ĠGreek 420878
ald 420842
Ġgrounds 420774
ĠDu 420682
storms 420682
ills 420647
Ġexpense 420307
Ġdetained 420294
Today 420198
Ġdiet 420132
Ġwood 419944
ĠCameron 419846
Ġthrown 419807
Ġcricket 419789
Ġideal 419436
with 419357
Ġteammates 419242
ours 419029
Ġprojected 418988
Ġpersonally 418900
ĠBoy 418663
rom 418591
ĠPhilippines 418591
win 418532
ges 418520
Ġcounties 418447
ĠBaker 418412
Ġprosecutor 418208
Ġroof 418195
met 418183
Ġpartly 418137
ĠMoon 418119
eman 418118
Ġfocusing 417587
Ġfishing 417567
than 417528
ĠJeremy 417140
ĠBad 417075
ais 417032
Ġcontrols 416961
Ġtonnes 416803
Ġshall 416706
Ġ61 416300
Ġgathering 416181
ĠERA 416171
Ġpresidency 416118
Ġ85 416058
ĠGas 416018
Ġscenario 416008
Ġquarters 415903
Ġang 415841
Ġsettled 415776
ĠCommerce 415765
Ġanybody 415745
Ġgarden 415739
ĠLibrary 415692
Ġbet 415656
Ġtopic 415472
olo 415445
Ġintense 415366
87 415223
Ġlinks 415193
Ġmed 415145
ĠAG 415133
Ġflooding 415079
ĠMurphy 415006
PM 414948
Ġfinds 414712
Ġsensitive 414687
pped 414653
Ġcompletion 414600
Ġminority 414451
Ġvon 414426
Ġstriking 414367
rich 414259
Ġbars 414225
Ġefficient 414161
Ġcontributions 414093
Ġvisits 413979
Ġattract 413800
ĠMalaysia 413797
ĠREL 413689
Ġopens 413450
Ġessentially 413448
Ġreasonable 413294
Ġsentiment 413245
ĠMelbourne 413174
Ġfitness 413105
Ġfrequently 413085
ĠRangers 413005
Ġmuseum 412980
ĠDNA 412953
Ġcontrast 412946
ĠAdams 412923
ĠWin 412896
Ġfalls 412856
Ġimposed 412416
250 412276
ood 412269
ĠRio 412154
Ġchoices 412118
Ġyellow 412058
rin 412014
ben 411923
ĠStaff 411914
ĠIndonesia 411890
Ġcarries 411859
Ġtourism 411821
UM 411797
ĠOrange 411756
sell 411620
Ġresolve 411592
ĠMumbai 411489
Ġpan 411402
Ġimplement 411372
Ġmidfielder 411253
OP 411125
Ġtensions 411004
Ġ800 410993
ĠLord 410817
ĠLight 410718
Ġlies 410707
Ã©s 410678
Ġparticipation 410579
Ġtries 410530
Ġsheriff 410515
degree 410211
Ġcongressional 410131
Ġmode 409832
Ġregulation 409794
ĠJacob 409633
ĠCrown 409518
Ġbowl 409503
ĠMississippi 409366
Ġtheft 409239
ĠKingdom 409230
Ġresort 409139
Ġroyal 409091
Ġunemployment 409050
PP 408972
Ġnomination 408925
ĠTR 408648
Ġbehaviour 408405
bank 408380
ĠForest 408352
WASHINGTON 408261
ĠOthers 408216
Ġslowly 408060
Ġmenu 408027
vo 407988
ĠSy 407958
ĠMetro 407924
ĠLisa 407851
Ġregistration 407688
While 407655
ĠJesus 407653
Ġ250 407621
Ġprocessing 407575
Ġmonetary 407451
ape 407253
ener 407147
ĠSystems 407145
Ġdisappointed 407103
Ġprint 407096
uy 407086
ħ 407081
Ġdemanding 407006
Ġincredibly 406946
play 406891
Ġsurveillance 406865
ĠStandard 406822
Ġperiods 406812
Ġwrites 406810
ĠLuke 406762
ĠPalestinian 406738
Ġwalks 406687
Ġriding 406649
Ġwaters 406623
ĠSox 406578
Ġtraveling 406421
Ġtap 406384
Ġorganized 406349
Ġresource 406333
Ġangry 406313
Ġtiming 406312
Ġempty 406306
Ġmilk 406240
Ġtherapy 406164
ĠBrandon 406013
mon 405990
Ġnationwide 405932
Ġnovel 405901
ĠStorm 405864
iet 405852
ĠBre 405528
Ġbegun 405495
Ġdiplomatic 405422
Ġads 405319
ĠDC 405240
ĠOb 405060
ĠMontreal 405052
ĠDown 404835
ĠMilwaukee 404629
Ġmeal 404597
ĠPuerto 404559
ĠMas 404496
Ġjoy 404329
Ġdeparture 404150
ĠWright 404017
Ġspoken 404014
style 403984
ĠAction 403954
ĠComey 403633
Ġdelivering 403434
Ġtoll 403053
Ġmidnight 402919
ĠRevenue 402829
Ġfiring 402757
Ġstunning 402755
Ġkicked 402698
ĠOttawa 402666
Ġefficiency 402472
ĠLincoln 402273
Ġtaste 402132
ez 402079
ĠWeather 401716
ĠMorning 401641
Ġhadn 401607
Ġdiversity 401541
ily 401316
ĠAy 401296
Ġargue 401278
Ġerror 401218
Ġtaught 401160
Ġche 400938
Ġoccasion 400924
Ġinc 400632
ĠOrlando 400629
ĠOnline 400617
Ġlegs 400469
ĠNation 400432
uck 400368
Ġwidespread 400320
ĠOcean 400261
Ġconstantly 400226
ĠLatin 400206
Ġcomfort 400136
Ġrely 399952
uff 399945
ĠCard 399767
aring 399704
Ġhumans 399677
ĠThomson 399666
aka 399658
BIT 399611
ĠReview 399400
po 399051
Ãº 399047
Ġtrucks 399015
Ġforecasts 399002
view 399001
Ġlongtime 398977
ĠConstitution 398937
Ġreserves 398855
bit 398812
Ġstressed 398769
Ġcontribution 398733
Ġchicken 398630
ĠDE 398523
Ġfat 398483
ĠOscar 398450
Ġcriticized 398428
Ġtestimony 398412
Ġapparent 398372
Ġconstant 398056
Ġcabinet 397970
ĠDuke 397902
Ġaspects 397887
lic 397838
ĠVol 397653
Ġwing 397640
Ġreb 397576
ĠSessions 397562
ĠSmart 397473
car 397294
ĠIm 397197
Ġoperational 397195
Ġregulators 397161
ĠJimmy 397157
eter 397072
Ġnobody 396992
ĠMarc 396930
Ġliterally 396710
Ġresistance 396663
ĠKam 396660
Ġsexually 396611
Ġ69 396544
uth 396138
Ġviewed 396044
Ġpicks 396035
Ġdin 396022
Ġtalented 395953
Ġtennis 395715
Ġstrengthen 395513
Ġgl 395447
ĠProtection 395426
Ġinstalled 395388
ways 395383
ĠCampbell 395356
ĠPortland 395331
Ġintent 395153
ĠPalace 394895
Ġsecondary 394857
Ġlocked 394826
ĠPA 394812
Ġlanded 394778
Ġlength 394771
Ġboosted 394731
Ġpurchases 394630
Ġcommand 394547
ĠAsked 394385
Ġspaces 394178
Ġiconic 393701
Ġrecommend 393607
Ġduties 393597
Ġseized 393560
Ġdelayed 393455
FA 393396
AND 393382
daq 393366
Ġhiring 393321
Ġoccur 393202
DC 392989
ĠMus 392849
Ġag 392807
Ġhopefully 392800
ĠPenn 392750
ards 392745
Ġstriker 392599
Ġrent 392531
ĠTy 392512
ĠBuffalo 392497
ĠKy 392472
Ġhike 392419
pper 392286
Ġ120 392117
Ġop 392071
Ġwheel 392001
ĠIan 391952
Ġchart 391872
tt 391870
Ġvolunteer 391618
IG 391502
person 391442
ight 391392
ĠBook 391238
unt 391028
ĠTechnologies 390801
Now 390776
Ġfavour 390638
ĠGh 390586
ĠQatar 390550
ĠDutch 390522
ĠGrant 390457
ĠBan 390401
rel 390339
Ġagreements 390287
Ġeducational 390187
worth 390171
ĠWard 390103
700 389997
Ġanymore 389987
Ġrepair 389986
Ġoperators 389967
ĠLi 389884
ots 389879
ĠLouisiana 389812
ĠWhether 389663
Ġodds 389568
Ġnoon 389434
ĠStr 389340
Ġfail 389257
iser 389229
Ġforever 389217
Ġrecall 389052
ĠPo 389038
ĠHot 388887
Ġdesigner 388736
ido 388721
LL 388564
ĠControl 388434
Ġsurvive 388384
iam 388251
Ġorganisation 388146
ĠWork 388118
Ġwider 388088
Ġtank 387763
work 387683
ĠAS 387518
Ġposting 387382
Ġsuddenly 387287
MC 387128
ĠAL 387116
ĠProfessor 387080
ĠCoach 387050
Ġrushed 386969
Ġafraid 386929
Ġactivist 386759
that 386693
ĠFilm 386688
Ġbacking 386638
Ġhousehold 386580
Ġsignal 386535
Ġaccurate 386445
str 386412
ĠThread 386389
ĠBears 386380
ATION 386377
ĠAlliance 386248
ĠMcDonald 386219
ĠVenezuela 386042
ogg 385907
ĠWindows 385839
makers 385645
Ġutility 385548
Ġrapidly 385496
Ġattractive 385484
Ġpa 385467
ĠLarry 385375
Ġmisconduct 385313
Ġfreshman 385065
Ġqualified 385042
Ġcleared 384984
Ġcrashed 384883
Ġparticipating 384868
Ġpages 384814
Ġhighlight 384796
Ġdialogue 384572
ĠAlberta 384479
Ġca 384392
Ġwitnesses 384301
ables 384284
Ġfollowers 384253
Ġensuring 384110
Ġpromoting 384076
Ġsearching 384009
Ġremote 383954
Ġclash 383938
Ġfirefighters 383811
Ġteen 383687
ĠPlace 383644
ĠNote 383429
Ġregardless 383359
ult 383295
oney 383273
ander 383194
ional 383149
ining 382945
Ġdemanded 382931
ĠCommunications 382918
Ġconsideration 382879
TC 382730
ĠSoutheast 382531
aga 382516
ĠGarden 382509
inger 382433
ht 382237
Ġbranch 382053
Ġmouth 381988
Ġaudio 381839
Ġraw 381825
Ġcoordinator 381819
Ġexact 381810
ĠHan 381684
Ġdelays 381666
ĠWal 381644
ĠWells 381607
Ġng 381562
Ġhandful 381523
Ġgirlfriend 381365
Ġtypical 381330
ĠWayne 381179
ĠFranklin 381124
Ġconstitutional 381123
ĠChance 381086
Ġblamed 381080
rim 381064
Ġpreliminary 381038
Ġlie 381025
da 380938
ĠCapitol 380861
Ġroutine 380855
ĠNASA 380820
Ġtre 380811
ĠGolf 380793
Ġsight 380605
ĠDer 380566
Ġreserve 380412
150 380336
Ġspeculation 380121
Ġcompetitors 380071
ĠMacron 380053
ony 380010
Ġovertime 379781
Ġ71 379560
Ġdepending 379374
ĠWarner 379282
Ġaccusations 379210
ius 379002
Ġpredicted 378926
ĠCharlie 378867
Ġeverywhere 378753
Ġcable 378733
ĠSaint 378662
ĠRegion 378652
Ġhero 378636
ĠEmb 378542
Ġkinds 378491
Ġstarter 378485
Ġsolve 378459
ĠGuard 378435
Ġloves 378283
ĠDouglas 378222
Ġfunded 378132
ĠBrent 377965
ĠAnyone 377860
Ġsubstantial 377819
ĠMarine 377789
ĠMichelle 377598
Ġcelebrating 377581
Ġoffset 377538
Ġbutton 377530
gg 377448
Ġmedicine 377376
uri 377348
Ġsomewhere 377267
PD 377258
Ġmon 376979
Ġfires 376780
final 376769
oth 376755
ined 376721
Ġunderway 376614
Ġmistakes 376600
Ġgrateful 376597
Ġcheap 376387
È 376386
Ġ95 376353
Ġviolations 376300
arr 376225
Ġsurprising 376005
Ġob 375926
ĠNATO 375842
Ġcontroversy 375819
ĠSweden 375699
Ġfuneral 375691
Ġreviews 375684
Ġpromotion 375681
TY 375544
Ġliberal 375490
Ġpromising 375370
ĠSP 375337
How 375301
Ġmemories 375164
Ġbreast 375038
zi 374977
ights 374938
Ġpattern 374885
Ġoutdoor 374882
ĠMu 374852
Ġrush 374831
ĠTheresa 374829
ĠPol 374799
Ġdescribe 374710
ĠBand 374664
ĠStewart 374469
Ġ1999 374221
ĠRaiders 374131
mp 374119
Ġprocedures 374053
Ġplot 374044
Ġhire 373834
used 373662
Ġ1970 373610
Ġpicking 373588
ĠSim 373585
Ġregard 373555
inal 373520
backs 373513
ĠHard 373432
ĠLow 373402
ĠAc 373341
Is 373296
Ġguarantee 373012
ĠGiven 372932
Ġbeta 372917
ĠTre 372912
Ġtrans 372888
Ġretailer 372840
Ġpurposes 372816
ĠHol 372812
Ġenjoying 372725
Ġbrown 372712
ĠPerry 372647
Ġplea 372515
MS 372464
ĠDakota 372347
ĠParker 372275
Ġcommit 372141
ĠLawrence 372001
ĠMorris 371923
ended 371838
Ġvirtual 371618
ÃĹ 371602
Ġfruit 371586
84 371556
ĠHas 371528
ishing 371451
Ġdominated 371418
ĠFA 371286
Ġchannels 371233
Ġunderstood 371188
Ġcitizen 370981
Ġchecks 370937
ĠKenya 370897
Ġdisabled 370891
SD 370833
Ġprotecting 370769
Ġtweets 370754
Ġsparked 370681
ĠCO 370584
§ 370551
ori 370550
ĠGDP 370469
ĠSer 370325
ĠVisit 370303
ĠMS 370297
Ġbarely 370210
Ġsand 369913
Ġap 369759
aging 369622
Ġrel 369518
ĠPerhaps 369498
ĠMourinho 369444
ĠJets 369442
Ġdisclosure 369391
Ġhighlighted 369330
Ġimplemented 369323
Ġcompliance 369307
ĠAB 369236
ĠAssistant 369223
ĠCape 369135
Ġfunny 369120
Ġleverage 369079
Ġmachines 368989
Ġranging 368893
Ġfastest 368880
ĠRoberts 368753
ĠPolicy 368688
gar 368543
Ġcollapse 368432
ĠThrough 368424
Ġrobbery 368234
ĠHay 368089
Ġelite 368050
ĠDigital 368001
ĠFun 367959
ĠAlan 367928
ement 367806
Ġmit 367786
Ġspin 367661
Ġlistening 367603
ĠDoug 367522
ĠSaints 367461
Ġinterior 367387
Ġenhance 367342
ĠCardinals 367262
ever 367230
Ġrobust 367196
Ġinform 367107
Ġsuffer 367082
book 367075
ĠMuslims 367061
Ġagriculture 367048
Ġkm 367012
Ġdivers 366988
Ã± 366942
ĠReg 366871
Ġequivalent 366733
Ġcraft 366666
Ġsettle 366570
Ġcontains 366534
ĠMack 366491
ĠDis 366477
ĠFore 366360
ĠSudan 366257
ĠMail 366173
ĠBrooklyn 366119
izer 366023
bn 365891
Ġhundred 365884
Ġexhibition 365533
ĠHave 365498
vin 365476
Ġcivilians 365341
ĠCincinnati 365300
Some 365277
ĠSE 365216
Ġbat 365191
ĠIns 364886
Ġcalm 364726
Ġtone 364713
Ġnormally 364626
Ġseeks 364617
ĠAss 364581
Ġmembership 364506
Ġannually 364477
Ġemployers 364405
CO 364387
Ġcomplicated 364234
Ġheadlines 364112
ĠLabor 364093
Ġlifestyle 364016
ĠRen 363829
ĠRich 363827
cent 363800
ude 363606
Ġawesome 363566
Ġpaint 363514
Ġrolling 363450
Ġwalls 363438
Ġlab 363431
Ġtourists 363224
care 363153
Ġgear 362858
izz 362836
Ġcream 362822
ĠTro 362813
ices 362682
Ġpack 362622
Ġdiseases 362443
ĠSpeaker 361977
ĠOfficers 361973
Ġsky 361959
83 361585
ĠBE 361559
Ġcategories 361481
Ġindicate 361432
Ġru 361379
ĠSony 361347
ĠDun 361297
ocks 361123
Ġconcrete 361097
ĠMadison 361015
ĠSab 360987
IV 360918
Ġobserved 360811
ria 360806
Ġinterim 360766
Ġencounter 360691
ista 360595
Ġanger 360575
Ġrapid 360431
mail 360398
Ġdestination 360256
ĩ 360226
Ġbreaks 360164
rell 360152
ĠChase 360033
Ġattorneys 359968
Ġrolled 359944
ĠSprings 359855
ĠVillage 359787
TO 359667
HS 359571
Ġcampaigns 359523
ologist 359379
ĠTax 359237
ĠIII 359234
Ġteach 359213
Ġprovision 359148
Ġrem 358897
Ġshirt 358736
Ġdeployed 358729
Ġguidelines 358648
Ġav 358550
zer 358437
Ġrushing 358413
94 358312
place 358295
Man 358289
Ġdivided 358245
ĠGun 358216
Ġwindows 358064
Ġcomponents 357931
aba 357866
ĠSwitzerland 357853
election 357819
ĠTampa 357737
ĠAri 357670
Ã¡s 357664
Ġhighway 357550
Ġacres 357498
Ġcrown 357475
known 357463
Ġinquiry 357303
url 357290
Ġexpertise 357238
Ġpraised 357172
yer 357116
Ġconclusion 356998
Ġabortion 356936
Ġlady 356850
Ġtribute 356634
Ġunveiled 356600
Ġbeaten 356555
TE 356554
ĠMot 356451
unk 356267
Ġtriple 356232
Ġforcing 356213
ĠTickets 356180
uit 356178
Ġiron 356175
Ġscientific 356154
ĠIP 356107
Ġdiagnosed 356073
Ġocean 356027
wide 355987
ĠCowboys 355894
LC 355847
Ġmethods 355821
ĠFind 355713
ĠDean 355685
Ġfundamental 355646
ĠGill 355592
Ġfeelings 355538
IO 355432
hu 355422
Ġfeedback 355305
ote 355163
Ġduo 355158
fully 355119
get 355109
Ġproof 355081
story 355038
Ġlongest 355019
Ġshops 354981
ĠJong 354969
ĠCro 354939
ĠHawaii 354915
91 354705
ĠJake 354591
ĠSusan 354480
Ġsubmit 354451
rav 354398
Ġmodest 354382
Ġlit 354376
Ġattempting 354353
Ġsits 354244
Ġaddressing 354199
93 354007
ĠBi 353994
Ġlying 353886
ĠOrganization 353856
ĠOak 353405
oli 353379
Ġfatal 353350
Ġmountain 353325
val 353199
lu 353173
ĠMaine 353027
Ġcharging 353004
Ġresigned 352734
illo 352650
Ġrecommendation 352627
party 352611
ĠWeb 352603
ĠPanthers 352590
Ġnoise 352517
ĠBrussels 352493
awa 352475
Ġambassador 352413
Ġaccessible 352193
ĠCalgary 352066
idd 352040
ĠAirlines 351998
gr 351959
Ġnu 351891
roy 351887
ĠMars 351810
ĠPoland 351660
ĠJerry 351610
ados 351603
ĠRico 351599
ĠMir 351585
ĠFin 351585
ious 351567
Ġpacked 351470
Ġinsider 351312
President 351096
ĠBull 350892
ĠYemen 350873
ĠConnecticut 350708
Ġ73 350697
Ġdepartments 350683
Ġorganic 350675
ĠSummer 350657
ĠBet 350609
ste 350591
zo 350527
rat 350409
Ġalliance 350394
Ġintervention 350320
wan 350232
ĠOR 350198
Ġdefined 350173
ĠÃł 350103
ĠChiefs 350035
Ġknocked 350000
ared 349908
Ġholes 349802
Ġpulling 349683
ĠTodd 349622
ĠJamie 349557
ĠSher 349442
Ġsignature 349409
ĠSur 349335
Ġgym 349300
ĠVladimir 349249
ĠThailand 349120
Ġgaming 349119
Ġsaving 349098
ceive 349012
82 348997
ĠBern 348967
ĠDid 348954
Ġhardware 348922
ished 348722
Ġconspiracy 348564
ANS 348531
ĠIntelligence 348509
Ġassembly 348482
Ġ101 348330
Ġconcise 348207
ĠManhattan 348166
Ġbelief 348016
Ġsurge 348002
Ġdeserve 347889
Ġconsistently 347859
ĠNor 347837
okes 347791
ðŁ 347636
ME 347617
ĠAsset 347583
Ġsubstance 347427
Ġprefer 347410
Ġburning 347376
ĠNik 347359
ook 347358
ĠPinterest 347227
Ġboyfriend 347132
ĠHal 347130
ĠMerkel 347068
Ġintroduce 347041
ĠLinkedIn 346684
ĠFull 346645
ĠFarm 346626
Ġchildhood 346622
ĠTransportation 346518
Ġterrible 346505
du 346495
Ġintention 346466
Ġseemingly 346459
elle 346404
Ġfoods 346329
Ġtitled 346288
Ġdual 346248
Ġimport 346195
Ġdeveloper 346056
UL 345826
ington 345703
ĠDelta 345593
?' 345532
iness 345478
Ġquit 345461
ĠGarcia 345457
ĠSri 345277
Ġhip 345271
ĠBrazilian 345196
elt 344930
ively 344773
Ġstructures 344722
Ġlabour 344702
Ġneighbors 344681
Ġtill 344592
Ġsoil 344591
Ġdropping 344581
Ġnominee 344566
Ġmeets 344446
92 344360
rant 344253
isa 343902
Ġluck 343880
aa 343790
jet 343777
ĠTor 343555
ĠCrime 343480
Ġlane 343472
Ġflu 343348
Ġlaunching 343228
ĠAutom 343189
aks 343165
Ġuniversities 343055
Ġpollution 343030
ĠAdvis 343022
ĠMall 342966
ls 342897
Ġdeeper 342896
Ġrepeated 342826
Ġmeanwhile 342723
Ġchip 342721
Ġoutlets 342717
Ġliked 342688
Ġsal 342668
Ġwelfare 342586
ago 342537
Ġmakers 342519
ving 342420
fer 342183
Ġovercome 342178
mb 342057
Ġshocked 342053
akers 342036
Ġnonprofit 341959
Ġdonated 341944
eral 341900
Ġresume 341872
Ġlogo 341843
Ġsubscription 341817
Ġ74 341671
ela 341465
Ġaspect 341417
html 341415
Ġsorry 341332
Ġupgrade 341225
Ġstance 341172
Ġfr 341117
Ġpapers 341068
Ġattacking 341050
Ġmeaningful 341048
81 340992
ĠWeinstein 340911
Ġcreates 340763
Ġhonour 340693
ĠReply 340689
oph 340630
Ġmarch 340607
Ġsmile 340582
Ġcomparison 340577
will 340450
ĠSanchez 340415
Ġvoter 340343
Ġtheory 340262
Ġequally 340144
ĠRoger 339972
Ġperfectly 339832
Ġlanding 339824
Ġbillions 339727
ĠBloomberg 339721
Ġpermit 339613
Ġfinals 339525
Ġracial 339432
Ġpregnancy 339308
iled 339257
ĠFederation 339211
Ġforest 339181
Ġtag 339139
aul 339112
Ġdrinks 339065
Ġ(" 338929
ĠMobile 338908
Ġtouched 338903
Ġclock 338853
Ġreg 338791
Ġasylum 338723
igan 338721
Ġsenator 338602
Ġ99 338534
ĠKumar 338531
Ġskill 338437
Ġ1998 338417
pa 338345
ĠAf 338332
Ġmood 338262
ston 338006
Ġhang 337997
ĠMPs 337748
Please 337746
ĠEve 337707
Ġdocumentary 337676
Ġpersonality 337599
ĠCast 337517
Ġdiscount 337469
bing 337392
ĠBoeing 337247
Ġdepend 337244
Ġcrossing 337238
EX 337188
Ġsucceed 337119
Ġhumanitarian 337069
ĠMuhammad 336993
Ġwages 336894
Ġcolumn 336815
Ġexternal 336767
Ġstatistics 336739
ĠTODAY 336483
Ġtrips 336427
Ġta 336410
Ġpenalties 336280
Ġwriters 336264
Ġshipping 336084
ĠIndians 336078
Ġsalt 335957
ĠIndustrial 335955
ĠYankees 335940
ĠDen 335924
Ġrough 335873
Ġbarrels 335805
ĠHor 335758
bert 335634
ĠDep 335490
Ġresign 335423
97 335409
Ġballs 335370
ĠJun 335365
ĠBab 335354
Ġassociate 335344
Ġstring 335188
Ġhub 335173
Ġorgan 335125
ĠMarshall 335118
ĠFIFA 335017
ĠMun 334923
ency 334914
research 334900
Ġpeers 334864
Ġtall 334829
ĠGoldman 334712
Don 334670
Ġparade 334569
Ġparks 334478
Ġdet 334442
Ġdisappointing 334381
Ġreflects 334367
ĠLakers 334301
Ġfiles 334292
Ġrelatives 334266
ĠUSD 334201
ĠArticle 334185
Ġcustom 334078
ĠCarlos 334077
Ġtracking 333987
Ġmaintaining 333957
ĠCur 333731
ardo 333719
ĠSkip 333692
Ġattitude 333646
Just 333577
Ġinstitution 333570
Ġnarrow 333416
Ġsnap 333379
Ġenterprise 333300
Ġdrives 333300
Ġ77 333269
Ġcrop 333263
Ġvirus 333259
Ġcelebrity 333092
Ġeconomies 333048
ued 333033
Ġsum 332999
ĠDubai 332927
ĠInsurance 332914
Ĺ 332905
ury 332894
ĠUnfortunately 332859
Ġclosure 332747
ota 332705
ĠPhilip 332575
oms 332510
Ġinvestigated 332496
Ġgenerations 332445
ĠETF 332411
ĠKeith 332365
ĠLater 332296
isk 332256
Ġpreferred 332254
Ġdefault 332226
Ġtowns 332109
ĠRod 331909
ĠDie 331893
Ġintegrated 331862
Ġacquiring 331824
Ġvoices 331793
Ġser 331762
Ġpresents 331754
ĠBR 331679
ĠEmergency 331626
Ġreligion 331561
HA 331482
Ġresponding 331482
ĠThings 331282
Ġbeef 331207
ĠWithout 331045
urd 331010
ĠCarl 331002
Ġadministrative 330990
ĠWhich 330926
Ġchallenged 330921
Ġcooking 330902
ivid 330871
ĠFer 330544
Ġtremendous 330534
ĠTerry 330531
iri 330519
CS 330467
ĠJunior 330396
ĠReddit 330328
Ġtea 330300
Ġaccounting 330224
lan 330208
Ġdetention 330181
Ġreplied 330141
SI 330100
ĠHel 329959
ns 329943
ĠProf 329942
Ġramp 329927
ĠConservative 329916
Ġattendance 329894
Ġspecialist 329864
ĠFinal 329754
Ġadvertisement 329750
Ġacquire 329749
ĠWhatsApp 329684
Ġworkforce 329663
ĠCalif 329598
Ġspeakers 329464
ĠEPA 329407
Ġconviction 329359
hire 329328
ĠFisher 329322
ĠIntel 329251
Ġbin 329097
ĠWas 329091
Ġearth 328825
vi 328698
Ġhurricane 328655
Ġholidays 328606
Ġassume 328597
Ġinvolve 328591
Ġdynamic 328576
ĠGre 328523
Ġitem 328502
Ġpound 328482
Ġanxiety 328231
ĠPrint 328224
rop 328185
Ġautomatically 328096
Ġdiscrimination 327999
ĠLam 327937
ĠColl 327911
Ġimpressed 327835
Ġinvolves 327783
ĠLes 327780
ĠTri 327739
ĠLook 327707
ĠiOS 327692
Ġgrab 327602
ĠAngel 327557
Ġstops 327480
ĠPay 327458
ĠECB 327444
Ġbunch 327424
Ġletting 327313
ele 327297
ĠAdditionally 327230
Ġboards 327080
NC 327061
Ġtragedy 327032
Ġpink 327007
Ġgonna 326906
ones 326868
Ġrev 326703
ĠIndependent 326668
ĠCambridge 326642
ĠPence 326625
Ġprosecution 326624
Ġdeputies 326488
ĠAhmed 326473
Ġlows 326457
ĠAmy 326388
ĠBuilding 326384
mark 326329
Ġsmooth 326168
Ġsole 326143
Ġwanting 326111
ĠHeart 326110
Ġobtain 325951
ĠBus 325935
Ġexchanges 325893
friendly 325862
Ġlabel 325828
elect 325807
ĠCompanies 325742
owing 325721
ĠCB 325656
RI 325654
ĠMaster 325576
Ġliquid 325525
ĠDanny 325514
Ġproceeds 325468
ĠLaura 325462
card 325427
Ġtears 325424
Ġexploration 325332
Ġdepression 325273
ken 325244
ĠFe 325232
Ġlending 325102
ĠYouth 325099
ality 324860
NS 324825
Ġmoon 324800
ĠTaiwan 324704
Ġstruggles 324689
Ġdiscovery 324668
Ġqualify 324579
Ġwireless 324471
alia 324452
Ġwitnessed 324383
Ġheight 324264
ĠGuy 324264
left 324208
KE 324205
Ġfoul 324177
ĠMohammed 324148
Ġgrass 324135
ĠNon 324114
Ġswim 324110
Ġbrilliant 324084
you 324083
ĠFlynn 324004
Ġsinging 323947
eria 323924
UT 323885
ĠMcCain 323868
ĠSep 323792
ĠWars 323751
Ġburden 323625
Ġpas 323556
Ġabandoned 323458
Ġint 323456
ĠTurner 323421
Ġcollective 323257
ĠEnvironmental 323251
ĠStudents 323077
Ġofferings 323073
Ġresignation 323037
Ġexplosion 322890
ĠKoh 322889
ager 322832
Ġthrows 322786
Ġasks 322728
light 322724
Ġanyway 322711
Ġyard 322709
Ġcarrier 322700
Ġwaves 322679
backed 322609
TR 322605
oud 322596
Ġbreach 322559
Ġdated 322526
Ġdressed 322315
ĠDodgers 322120
oles 322022
Ġ78 322006
Ġreads 321964
Ġpredict 321936
ĠJerusalem 321863
ĠPT 321849
Ġcrack 321771
yan 321673
Ġnights 321647
eline 321634
Ġconvinced 321433
Ġlock 321318
Ġcarefully 321315
ĠMercedes 321289
Ġultimate 321248
Ġdist 321228
Ġslight 321181
ĠEdwards 321180
Ġswing 321107
iling 321100
Ġknife 321023
ĠNashville 320960
IF 320841
inder 320721
udd 320694
Ġsenators 320670
ĠFurther 320664
ĠXi 320604
Ġstr 320601
ĠOd 320574
days 320556
Ġcomm 320395
Ġverdict 320377
Ġconfirmation 320315
king 320117
ĠCS 320034
Ġadvocates 319918
Ġpride 319719
Ġmemorial 319656
ams 319633
erman 319519
Ġteenager 319462
ĠNeil 319083
uts 319073
Ġsoul 318999
see 318962
post 318844
Ġchest 318797
fire 318768
ĠLynch 318732
Ġpeaceful 318723
OND 318712
ĠIndustries 318609
ĠJuan 318532
Ġrestore 318478
Ġreliable 318476
ming 318472
agan 318393
Source 318319
ĠCabinet 318047
Ġremarkable 317965
ĠTrudeau 317883
ĠEs 317800
Ġintegrity 317774
ove 317752
fe 317723
Ġproceedings 317669
Ġconnections 317543
Ġunprecedented 317496
ĠGlen 317472
ux 317076
Ġearning 317005
Ġingredients 316991
Ġnominated 316987
ĠBangladesh 316986
made 316962
Ġlessons 316942
Ġbreakfast 316917
ĠRelations 316914
Ġloose 316768
Al 316745
Ġupgraded 316743
ral 316719
ĠPage 316717
oto 316670
ĠQueensland 316623
Ġprocedure 316595
ĠSmall 316592
Ġrespective 316513
Ġpictured 316507
ĠBas 316406
Ġpreparation 316389
ĠMyanmar 316388
Ġdonation 316374
Ġvisible 316364
iest 316312
ĠBroadway 316271
rick 316215
ĠSchools 316185
Ġarrests 316066
ĠJessica 316046
ĠBengal 315957
Ġhell 315855
Ġannouncing 315835
Ġmail 315834
ĠMcG 315824
two 315711
rest 315680
OD 315673
ĠBradley 315559
Ġdoubled 315523
Ġpledged 315368
Ġcomeback 315289
Ġextraordinary 315283
Ġslide 315261
Ġassess 315233
Ġagricultural 315221
ĠKay 315168
Ġvendors 315122
Ġnarrative 315037
Ġreviewed 315023
ĠPass 314974
Ġinspiration 314897
ĠHunter 314803
Ġcalendar 314792
ĠDiamond 314771
Ġremoval 314711
ners 314681
ĠKap 314655
Ġconsent 314654
Ġvisual 314594
Ġcheese 314528
ĠTher 314519
ĠFR 314510
ĠShanghai 314451
iah 314369
ĠCole 314347
AK 314338
Ġranking 314296
Ġcook 314282
Ġhalftime 314258
ĠStars 314254
Ġroutes 314202
aim 314190
Ġestablishment 314182
ĠMug 313849
Ġsurvivors 313842
urg 313681
ĠBrett 313573
Ġunexpected 313482
ained 313246
Ġrarely 313222
ĠGall 313182
Ġadvocate 313118
ĠNad 313081
Ġ911 313028
Ġracist 313018
erer 313016
ĠRev 312970
ĠSection 312919
Ġhelpful 312904
CT 312865
agg 312773
Ġgovernance 312722
Ġfelony 312645
Ġoptimistic 312621
Ġelectoral 312583
EG 312558
town 312557
Ġdaughters 312525
Ġanswered 312429
Ġthin 312382
ĠClassic 312351
Ġshareholder 312294
ĠBlake 312290
ĠFla 312233
Ġparliamentary 312201
dy 312174
Ġcommented 312147
Ġtri 312144
Ġglobe 312097
Ġmandate 312036
Ġslipped 312015
ĠTower 311951
Ġoperated 311876
gers 311833
Ġassured 311638
ĠMartinez 311606
Ġdesigns 311582
ĠModel 311540
Ġstakeholders 311538
Ġdefended 311520
Ġseniors 311505
Ġvacation 311385
Ġglobally 311349
ump 311338
Not 311267
Ġclip 311194
Ġarticles 311113
BR 311083
km 311034
ĠFront 310999
PL 310946
Ġadoption 310937
Ġsudden 310930
Ġframework 310849
Ġhanging 310762
gl 310727
ĠSel 310686
Ġmoderate 310656
Ġreverse 310603
income 310526
cor 310423
ĠGB 310339
Ġphysically 310325
Ġtransparency 310286
ĠElectric 310233
Ġrefugee 310206
profile 310177
iva 310173
ately 310125
ĠAC 309987
Ġtransferred 309933
Ġaffair 309886
ĠAlaska 309859
oria 309685
ĠChange 309629
Ġrepeat 309568
Ġscreening 309560
ender 309554
ĠCas 309522
ĠDav 309428
Ġfocuses 309380
Ġcommissioner 309370
Ġupside 309335
ĠKeep 309081
ĠBlues 309005
ently 308985
Ġaut 308936
Ġexperiencing 308907
aman 308821
Ġapprove 308772
Ġmile 308714
Ġcheaper 308591
ĠWind 308558
ĠStore 308490
Ġgrabbed 308475
Ġsons 308474
Ġfighter 308427
Ġum 308348
ĠBased 308323
don 308280
Ġconstitution 308078
finals 307995
act 307911
¢ 307756
Ġmill 307654
Ġorganisations 307639
ĠToyota 307587
Ġyuan 307510
Ġterrorists 307452
Ġforth 307446
Ġavailability 307410
Ġentrance 307357
Ġvolumes 307354
Ġmult 307209
plus 307199
ĠColumbus 306944
ĠSummit 306924
Ġbabies 306893
ĠMur 306873
ĠGray 306865
ĠChar 306813
ĠButler 306782
Ġpose 306774
ĠNatural 306684
ĠAtt 306676
Ġdecrease 306651
Ġtens 306520
kt 306506
Ġminds 306491
Ġimpacted 306438
Ġchapter 306369
ĠOp 306349
ĠHarrison 306327
ĠRodriguez 306285
Ġethnic 306242
Ġtravelling 305876
ĠBond 305859
ader 305834
core 305811
Ġgallery 305795
founder 305645
ĠVill 305637
Ġdecent 305617
ĠHistory 305616
ĠInt 305584
ĠNa 305563
ĠHad 305551
Ġmainstream 305334
ĠTs 305327
Ġbottle 305325
sen 305317
Ġrecession 305285
Ġsophomore 305278
Ġsilence 305260
cc 305241
Ġqualifying 305121
Ġcomplained 305112
ĠRad 305045
Ġactively 304946
Ġbacks 304915
ĠMusk 304903
Ġcareful 304873
Ġmeals 304833
ĠDor 304832
Ġmess 304744
ĠBelgium 304720
Ġke 304692
ĠLopez 304679
Ġbow 304674
Ġhelicopter 304568
was 304540
Ġstone 304496
kins 304477
Ġunlike 304443
Ġcollision 304421
ĠAlt 304409
HP 304392
ĠMason 304191
has 304135
Ġclimbed 304119
Ġindication 303828
Ġhotels 303801
Ġloud 303777
ĠMilan 303696
kes 303694
Ġbadly 303620
Ġtrials 303608
Ġimpacts 303483
ĠJane 303455
Ġcrossed 303441
Ġdiscussing 303322
ĠSM 303166
Ġpopularity 303122
ĠWant 303103
fall 303092
Ġartificial 302797
ĠBu 302745
akh 302716
Ġdominant 302571
gov 302570
Ġpremier 302546
Ġexecution 302540
gate 302536
Ġswimming 302514
Ġchat 302402
Ġdevastating 302392
acking 302339
Ġreception 302301
urt 302118
Ġtheater 302110
Ġgather 302098
Ġtear 302087
uro 301879
Ġdemocratic 301863
Ġrebels 301838
Ġlifetime 301811
Ġradical 301726
uan 301624
Ġtechniques 301599
ache 301498
ior 301484
Ġcamps 301409
Ġtelephone 301408
ĠDublin 301381
ĠBrand 301342
ĠMarcus 301234
aun 301225
ĠRec 301188
Ġ82 301179
ban 301175
Ġsafely 301087
aku 300995
aki 300908
Ġbankruptcy 300901
FF 300818
Ġformat 300789
Ġattached 300767
ĠFame 300667
ĠEdward 300646
Ġmerger 300646
ĠRepresentatives 300620
izes 300534
Ġhidden 300478
Ġval 300402
zz 300388
Ġexcess 300317
Ġscope 300316
Ġdivorce 300300
Ġburn 300252
Ġrequirement 300197
BB 300105
ĠHand 300038
Ġcons 299991
Ġrisen 299943
Ġtwitter 299810
Ġoffseason 299699
ĠSometimes 299568
ĠInf 299541
ĠAng 299520
uer 299493
report 299369
Ġdreams 299261
Ġ700 299171
ips 299150
ĠDream 299146
Ġgifts 298875
Ġsomehow 298787
ĠTur 298725
ĠRachel 298640
can 298514
Ġlog 298497
ĠMedicaid 298417
Ġles 298407
Ġtired 298356
ĠArkansas 298240
Ġliquidity 298197
ĠPhillips 298135
ĠBTC 298117
Ġhide 298087
Ġpun 298047
ĠRun 298010
lyn 297993
ĠUC 297966
ĠDesign 297957
ĠDev 297936
Ġvaluation 297877
Ġreveals 297860
ĠChild 297831
other 297818
Ġposed 297746
lee 297706
Ġships 297624
ĠTrue 297566
Ġdescribes 297541
Ġrunner 297510
bro 297419
Ġankle 297359
Ġod 297176
ĠAnnual 297109
CL 297095
Ġoverhaul 297085
ned 297026
Ġbold 296992
Ġmo 296987
ĠFalls 296964
Ġemployed 296934
ĠGro 296918
Ġflash 296748
ĠTD 296692
Ġnervous 296691
Ġintegration 296683
Ġsmartphones 296588
Ġmovements 296576
nie 296532
ition 296525
ĠThird 296457
Ģ 296347
Ġmetres 296336
Ġeconomist 296312
omp 296291
Ġteens 296281
Ġeveryday 296275
Ġinterviewed 296124
Ġbriefly 296065
], 296044
uke 296014
ĠFOX 295919
Ġunderlying 295896
ĠLuc 295800
Ġcourses 295794
ss 295763
amed 295738
° 295681
ju 295673
ĠBanks 295671
Ġoutfit 295653
illing 295636
Ġtrafficking 295610
Ġurging 295541
Ġbelt 295494
Ġrid 295491
CP 295465
Ġelderly 295385
ĠGrowth 295195
Ã¡n 295171
ĠSn 295157
Ġsurrounded 295115
Ġsisters 295040
ĠIslam 294958
Ġsynd 294898
ĠCosta 294799
di 294694
ĠKl 294585
Ġmanufacturer 294580
holders 294501
Ġelement 294469
Ġload 294422
Ġbooked 294385
Ġaccompanied 294325
ĠChamber 294296
Ġbriefing 294251
Oh 294223
imi 294167
ĠDefence 294070
ĠCurrently 293941
aking 293915
Ġhandled 293877
ĠCD 293767
ĠBenjamin 293678
Ġpocket 293634
ĠKashmir 293626
Ġlighting 293496
aps 293475
Ġ1997 293429
ech 293333
Ġaddiction 293232
Ġbases 293224
Ġpriorities 293223
Ġhardly 293204
ĠQuebec 293112
ĠEarn 293108
IES 293042
ĠZach 292878
ĠAlong 292877
MI 292682
Ġins 292678
ĠRogers 292655
ĠKan 292637
ĠFuture 292633
Ġtriggered 292544
ĠUnit 292523
Ġweighed 292508
Ġpointing 292453
Ġchocolate 292434
ĠBrowns 292434
ĠISIS 292322
Ġgoalkeeper 292282
Ġsaves 292266
ĠAndre 292244
burn 292189
ĠCont 292185
ĠNetherlands 291955
Ġpolitically 291889
ĠAshley 291879
ĠWhit 291782
aded 291580
PH 291559
Ġborders 291497
ORE 291479
Ġally 291428
Trump 291277
istan 291236
ĠHunt 291227
ĠCancer 291170
ĠGrace 291108
ĠTottenham 291089
Ġ1960 291083
ĠMarg 291014
ĠBryan 290869
ĠAgain 290825
acing 290814
Ġarguments 290777
ĠSouthwest 290770
Ġvocal 290704
Ġjudgment 290694
Ġengaging 290634
Ġadopt 290586
Ġrental 290535
Ġlinebacker 290530
ĠKardashian 290522
Ġepisodes 290518
.. 290477
Ġunt 290394
Ġvowed 290348
Ġ79 290286
ule 290270
Ġtransit 290218
Ġoffshore 290213
Ġsuppliers 290165
Ġarguing 290067
Ġsatellite 289892
ĠLind 289865
ĠTaliban 289784
Buy 289756
ĠCaribbean 289680
ĠBarry 289576
Ġauthors 289565
ĠWolf 289554
Ġviewing 289503
ĠCubs 289256
From 289185
Ġ% 289173
Ġcurrencies 289165
Why 289164
ĠBroncos 289117
Ġtrick 289054
Ġdiesel 289013
ĠLiberal 288914
FL 288830
Ġtopics 288812
Ġretain 288775
ĠLiberty 288753
Ġacquisitions 288737
ced 288733
Ġfre 288732
Ġfleet 288731
Ġcopper 288722
ĠPot 288708
jen 288704
ĠElliott 288678
ĠPyongyang 288662
Ġobject 288587
ĠUse 288576
Ġmutual 288406
MP 288289
Ġev 288274
Ġdeny 288254
ĠEveryone 288220
lling 288189
Ġpays 288175
Ġdrought 288077
Ġcorn 288063
Ġworkplace 287991
rig 287991
ĠMn 287903
Ġadvisory 287857
ĠCat 287657
Ġchronic 287650
ĠSteelers 287633
Ġboxes 287568
ĠNap 287540
Ġdemonstrated 287519
ĠTournament 287510
Ġsymbol 287503
ĠAfghan 287493
ĠTan 287374
ired 287364
ĠEv 287305
ĠConsumer 287296
Ġmoral 287280
ĠAdditional 287257
Ġwebsites 287226
Ġoccasions 287194
Ġfate 287189
Ġpitcher 287141
Ġtaxpayers 287073
Ġdeemed 287047
ĠLibya 287036
Ġpriced 287018
Ġdistributed 287010
ĠForum 286974
Ġrice 286951
Ġbloc 286921
Ġprovisions 286874
agh 286857
Ġpen 286748
Ġattracted 286626
ĠEdmonton 286488
Ġthousand 286337
Ġpainting 286305
Ġil 286285
Ġcourtesy 286255
Ġeliminate 286249
Ġacc 286174
Ġmeters 286147
Ġreflected 286127
Ġcomponent 286098
Every 286082
Ġsells 286066
Ġfault 286061
Ġburned 285977
ĠKirk 285908
ĠAnna 285898
Ġappeals 285893
Ġeggs 285800
Ġfrequent 285796
Ġtrigger 285649
Ġrevised 285556
ĠAngela 285509
Ġ81 285508
Ġsingles 285465
Ġviral 285439
Ġworries 285395
ĠShould 285292
profit 285207
Ġraises 285159
ĠBryant 285095
ĠProduct 285047
Ġtenure 285026
Ġdiabetes 285023
Ġcolour 284957
azz 284931
ĠGirls 284929
Ġpractical 284908
Ġblind 284900
ancing 284807
pictured 284805
Ġfinale 284761
ĠElection 284693
Ġathletic 284685
Ġpromoted 284615
Ġflowers 284575
Ġtrains 284454
ario 284434
Ġsufficient 284376
IE 284360
Ġexamples 284343
Ġshed 284301
Ġbirds 284270
Ġchaos 284068
Ġwound 284065
Ġrocket 283996
Ġwet 283931
Ġsample 283902
ĠNag 283850
ĠOliver 283835
Ġscrutiny 283648
ĠSeven 283591
ĠRoman 283539
ĠFred 283442
Ġweird 283209
ĠTam 283208
ĠSupport 283037
ĠNathan 283014
Ġstudying 283009
Ġintroduction 282858
Ġtons 282804
cer 282772
aus 282753
ION 282749
Ġcritic 282718
ĠAh 282712
alo 282598
pur 282574
Ġstorms 282555
ĠMission 282528
Ġcredits 282517
Ġgrants 282474
Ġcomp 282383
Ġhearts 282283
part 282276
Ġpin 282252
Ġsubsequent 282235
Ġmad 282201
ĠSacramento 282196
woman 282166
from 282152
Ġoutcomes 282124
Ġoldest 282069
Ġdesperate 282057
ĠTal 282053
ĠDJ 281987
ward 281961
Ġaudiences 281954
Ġimportantly 281952
ĠEmily 281805
sk 281776
ĠHeat 281762
ĠType 281742
ĠPeace 281646
Ġsuspicious 281637
aly 281600
ĠGET 281552
ĠCAP 281468
dis 281450
ĠIraqi 281445
ĠReed 281417
Ġstrange 281376
ĠParent 281323
900 281321
Ġglad 281161
ĠTroy 281160
ĠShort 281140
Ġheritage 281072
Ġarriving 281032
ingly 281012
Ġtransformation 280931
Ġlease 280924
Ġcollapsed 280864
cha 280834
ĠPatrol 280800
Ġcomputers 280631
Ġprinciples 280622
Ġsporting 280585
ĠHughes 280517
mile 280506
ĠCit 280423
Ġdrilling 280412
ĠBox 280313
ÃŁ 280210
bre 280163
ĠOverall 280064
Ġopioid 280029
Ġdelighted 280003
Ġhonored 279940
ĠCold 279930
Ġunions 279904
ĠCou 279814
ĠCircuit 279790
Ġblast 279759
sson 279751
ĠHernandez 279670
ĠLooking 279652
Ġlegally 279609
ĠWalmart 279492
bridge 279484
Ġmat 279343
rad 279249
ids 279229
Ġdining 279191
Ġrebound 279109
abad 279054
ĠRom 278931
Ġimpose 278846
ĠAlpha 278839
ĠWeekly 278838
TER 278820
ĠJam 278790
Ġabsolute 278768
Ġinventory 278726
ĠBilly 278588
ĠKaren 278548
ĠFriends 278519
ĠCent 278509
ĠVikings 278503
ĠMuch 278460
cell 278452
ads 278436
Ġph 278359
Ġkiller 278353
ĠMembers 278278
Ġshooter 278220
ĠInvestigators 278181
ĠJoshua 278103
Ġparticipated 277999
Ġinnocent 277984
ĠRichmond 277960
itor 277862
ĠDal 277847
ĠOperator 277842
Ġmakeup 277774
Ġconf 277769
ĠNEWS 277738
ĠDef 277683
Ġchase 277680
ĠCost 277613
mont 277549
": 277514
Ġarrangements 277419
stein 277364
Ġretire 277325
ĠLuis 277293
Ġrenewed 277271
ĠTownship 277243
Ġchecked 277221
arts 277187
ĠCash 277086
Ġcentres 277074
chers 277064
ĠSolutions 277023
Ġlegend 276841
ige 276692
most 276688
osed 276680
ĠPor 276667
Ġpremiere 276644
FS 276628
Ġmissiles 276600
ĠLang 276591
Ġsing 276565
best 276542
Ġtail 276539
Ġriders 276477
Picture 276466
zen 276375
ĠKent 276319
Ġtransform 276242
Ġwildlife 276225
Ġsmoking 276173
Ġpreseason 276162
ĠLucas 276075
ĠAnne 276033
owski 275990
Ġtape 275941
Ġdisplayed 275923
Ġforum 275851
Ġanonymity 275759
ĠIndianapolis 275648
hips 275520
acc 275490
ĠMoreover 275417
lers 275403
area 275390
ĠIndeed 275296
Ġconducting 275249
Ġinfection 275230
Ġdealt 275119
OB 275070
asing 275056
ĠGaza 275033
itter 274991
ĠKa 274774
Ġhopeful 274745
ĠSnow 274431
Ġentitled 274379
Ġaffecting 274378
Ġeager 274377
Ġcircle 274377
Ġlaugh 274363
ĠProsecutors 274323
ĠDur 274304
Ġbarriers 274301
ĠPoll 274287
oun 274251
ĠPalm 274249
chi 274222
Ġsamples 273995
Ġcompromise 273961
atter 273939
Ġenormous 273852
ĠÃ© 273850
coming 273834
ĠPharmaceutical 273792
Ġrank 273790
Let 273779
Ġtransgender 273707
ĠCloud 273685
FO 273601
ĠBor 273585
Ġbonus 273453
Ġordinary 273393
ĠPres 273379
ĠHIV 273327
ires 273318
OSE 273304
Ġdancing 273269
ĠHD 273260
Ġversions 273225
Ġ88 273201
rate 273182
Ġtackles 273131
Ġknock 273103
ĠEmma 273048
Ġmotivated 273037
ĠBennett 273016
ĠBurn 272969
Ġgrid 272949
Ġembrace 272893
ĠSpurs 272878
Ġflows 272786
ĠGer 272782
Ġsponsored 272749
Ġsurvival 272650
ching 272641
Ġ1995 272558
Ġreward 272540
Ġdepends 272518
Ġpostseason 272496
Ġloaded 272495
Ġneutral 272427
ĠPop 272380
BL 272311
Ġrevolution 272243
ĠFreedom 272231
Ġrecovering 272164
Ġrequiring 272112
ALL 272099
ARE 272005
Ġmini 271973
lt 271969
ĠFDA 271956
Ġcarpet 271955
ĠPrior 271954
Ġadmission 271929
ĠEver 271845
ĠTribune 271844
ĠRonaldo 271778
Ġthick 271746
Ġlanes 271737
Ġ84 271628
ĠMemphis 271611
Ġopt 271603
BO 271578
Ġfaculty 271575
ĠChad 271532
ĠSUV 271446
ĠHen 271369
Ġeste 271245
ĠHu 271209
ĠAgriculture 271164
store 271162
ĠDrug 271143
inter 271032
Ġ1996 271029
ident 270906
Ġbackup 270890
ĠHonda 270852
ĠHope 270845
oes 270826
ums 270819
amer 270815
Ġbreath 270752
Ġ110 270711
Ġjoke 270670
ĠAld 270602
Ġwondering 270508
ĠAssad 270474
ĠRem 270469
Ġfundraising 270444
pot 270444
Ã¨ 270365
Ġquestioning 270332
Ġpent 270328
ĠMoney 270252
ĠMedicine 270112
wick 270107
ĠKnights 270048
Ġbatting 270032
ĠMos 269980
Ġdesignated 269966
isse 269958
Ġspotlight 269931
Ġlake 269902
Ġcaution 269892
Ġinmates 269852
Ġlap 269849
CE 269801
ĠJavascript 269796
ĠDeutsche 269737
ĠFargo 269727
Ġguaranteed 269718
borough 269702
Ġfunctions 269615
ĠElementary 269614
ĠChuck 269604
Ġpitched 269511
ĠKrist 269493
Ġsteal 269479
Ġchips 269429
Ġalarm 269409
Ġbeloved 269313
scale 269307
Ġassaulted 269211
ĠPentagon 269198
Ġtemporarily 269143
Ġ93 269129
Ġ> 269121
ĠPortugal 269115
ti 269074
HL 268988
Ġdecreased 268914
Ġexistence 268884
Ġisolated 268878
Ġdeposit 268836
Ġstudied 268811
") 268781
Ġtrophy 268725
ĠBrooks 268673
Ġbattling 268654
Ġweaker 268565
ĠPrivate 268558
ĠAccess 268409
Ġvirtually 268357
Ġshortage 268355
Ġgaining 268336
Ġbathroom 268316
TON 268262
Ġconcerning 268185
Ġengineer 268141
Ġbread 268137
Ġdemonstrate 268091
ĠDh 268080
Ġhorses 268054
Ġintersection 268025
Ġcolors 268019
Ġdelegation 267980
Ġnotable 267878
Ġwithdrawal 267832
ĠDennis 267772
Ġlocally 267705
Ġcoastal 267693
Ġcomply 267649
ĠMoh 267643
ĠAlbert 267593
Ġclosest 267584
ĠCITY 267517
Ġ83 267510
Ġcancelled 267493
ĠðŁ 267425
Ġsharply 267423
RS 267352
Ġproductivity 267345
Ġbasket 267328
SS 267300
Ġadmit 267270
ool 267247
ination 267156
ĠBB 267130
Ġsur 267116
ĠSteel 267079
ĠTed 267044
ĠPac 267022
Ġpatterns 267019
Ġlisting 267000
Ġreplacing 266983
ĠPradesh 266865
Ġroots 266858
Ġbroker 266817
ĠWriting 266781
Ġsued 266772
Ġorganised 266757
ĠThanksgiving 266718
ĠNOT 266678
Ġjournalism 266677
uel 266637
Ġkilometers 266575
Ġhunt 266521
berry 266504
ĠMother 266501
Ġlegitimate 266467
Ġinput 266439
ĠRel 266285
ĠGuardian 266232
Ar 266200
Ġtransported 266165
Ġbedroom 266065
ashing 266017
Ġbats 265926
Ġcleaning 265897
Ġwrapped 265737
Pacific 265703
Ġfence 265584
Ġtestified 265520
Ġ1994 265465
Ġinterference 265285
Ġmatching 265242
Ġexpression 265206
eta 265200
ĠSpencer 265164
Ġstrategist 265080
who 265079
Ġvictories 265072
Ġ2022 265025
Ġstakes 264980
Ġbuses 264915
ĠHousing 264903
Ġeditorial 264899
Ġ86 264890
ĠBishop 264831
Ġfrustrated 264765
Ġappearing 264748
http 264639
IGHT 264581
Ġmemo 264574
Ġinsiders 264544
Even 264519
Ġclassroom 264392
Ġchef 264345
aining 264227
]. 264178
ĠMcD 264177
Ġ87 264160
ĠPunjab 264146
Ġancient 264080
Ġresolved 264080
Ġdying 264074
Ġdestruction 264059
Ġgoverning 264027
Ġrestructuring 263999
ĠPick 263955
Ġmunicipal 263950
Ġengines 263884
ĠHudson 263882
Æ 263839
Ġrepeal 263819
standing 263795
Ġbound 263702
ĠOS 263697
ĠCommonwealth 263670
Ġdescription 263622
Ġhouseholds 263616
Ġmal 263585
Ġstopping 263506
equ 263495
Ġregulator 263476
Ġcontaining 263464
Ġremoving 263388
Ġwithdraw 263381
Ġburied 263379
Ġlists 263349
ĠGil 263278
Ġlowered 263200
Ġformally 263001
ĠRound 262951
asi 262897
¥ 262873
lett 262806
Ġprogressive 262799
ĠFalcons 262785
ĠRaw 262736
gun 262696
Ġcontributing 262691
Ġhunting 262667
Ġvalid 262617
Ġexception 262431
ĠPlayers 262414
ĠTra 262370
Ġracism 262359
hing 262358
chen 262294
Ġdifferently 262229
Ġchampionships 262199
ĠEng 262192
ĠNO 262074
ĠAuto 262045
ĠErdogan 262043
iding 262029
Ġwarming 262001
Ġcivilian 261971
ĠDam 261877
Ġfantasy 261858
ĠNav 261844
itions 261828
ĠDrew 261697
ĠNancy 261651
Ġtrapped 261637
ĠRussians 261637
ĠIC 261630
Ġflexibility 261554
ular 261540
Ġviolated 261539
ipped 261532
Ġgarage 261500
ĠDeep 261405
Ġpraise 261377
ĠLab 261340
ĠPlayer 261336
Ġjudicial 261333
Ġdonate 261324
Ġseparated 261295
Ġreleases 261267
nik 261200
Ġexplanation 261148
aph 261101
Ġloyal 261095
Ġstrongest 261041
ĠShar 260960
Ġrescued 260941
Ġambitious 260914
Ġclimb 260898
Ġscared 260822
Ġignored 260792
cut 260774
Ġstole 260745
Ġweakness 260671
ĠRidge 260614
oa 260544
LA 260539
Ġdep 260515
ĠPowell 260494
Do 260493
Ġprotein 260462
Ġreiterated 260264
ĠCox 260241
aling 260231
ĠUnlike 260002
ĠKane 260002
ĠMcConnell 259947
Ġshowcase 259850
Ġuniform 259823
ower 259784
Ġdiscover 259779
stop 259732
ipper 259554
Ġtreatments 259548
Ġgrocery 259503
Ġsubscribers 259488
lock 259482
ple 259371
Ġflew 259364
ania 259218
Ġstepping 259156
ĠSoviet 259098
Ġconsultant 259065
ags 259024
ĠLim 258971
Ġ91 258913
ĠCode 258860
ports 258785
box 258778
Ġlakh 258748
Ġreminder 258703
ym 258702
ĠTravis 258665
Ġpure 258622
now 258614
ĠVR 258581
Ġachievement 258579
ĠEmirates 258460
ĠThunder 258441
Ġmerely 258388
ĠCa 258313
ĠAverage 258303
ĠDa 258255
Ġtopped 258235
ĠCurry 258220
Ġchemicals 258106
Ġamendment 258084
ĠBorder 258081
ĠBat 258043
Ġ130 258035
Ġprogramming 258029
Ġtele 257973
ĠKarl 257934
Ġaveraged 257901
ĠSpe 257843
world 257785
PG 257729
Ġfights 257714
ĠPrincess 257532
ĠCIA 257450
ĠAbe 257392
Ġacted 257380
only 257349
Ġinsight 257236
Ġathlete 257119
ĠTar 257102
commerce 257101
Ġaveraging 257077
cr 257021
ĠPalestinians 257009
Well 257002
Ġbull 256775
Ġchoosing 256721
Ġsurely 256692
ĠSecret 256662
Ġteammate 256644
ĠAmendment 256628
ĠBirmingham 256570
Ġexcitement 256490
strong 256482
ĠSin 256474
Ġdamages 256472
rated 256447
Ġrankings 256399
Ġconservation 256344
home 256341
erm 256319
ield 256273
Ġdisorder 256253
acher 256114
Ġnaturally 256058
atur 256032
Ġpackages 256030
Ġapproaches 255868
icks 255861
ourn 255786
Ġodd 255752
Ġshore 255708
ĠBeing 255626
Ġmagic 255621
Ġtourist 255525
largest 255401
Ġwhenever 255344
Ġlenders 255308
Ġegg 255300
ĠChair 255253
Ġlets 255237
Ġwarnings 255157
į 255145
Ġpol 255125
Ġdrag 255118
ĠAmb 255082
ĠCle 255039
ĠLouisville 255029
ĠShaw 254999
lands 254987
Ġanthem 254972
ĠTrail 254847
Ġaccepting 254776
anger 254772
good 254713
ĠBroad 254691
ĠLebanon 254651
ĠMillion 254644
ĠHenderson 254589
Ġwh 254584
Ġdust 254497
Ġ92 254449
ĠMend 254376
Ġchecking 254325
ĠCow 254323
sized 254312
Ġautomatic 254285
Ġcelebrates 254246
Ġarena 254180
Ġfinger 254144
ĠHarvard 254100
Ġfrustration 254067
Ġstrict 254033
Ġpreserve 253999
Ġsleeping 253849
Ġconverted 253830
Ġinsights 253821
Ġtra 253782
Ġjailed 253746
Ġchamber 253742
Ġtoxic 253730
ading 253724
ĠTriple 253712
grade 253590
ĠRest 253576
ĠHoly 253554
oper 253498
Ġdesk 253302
Ġmatchup 253209
Ġsteep 253205
ĠGot 253138
lay 253101
ĠCab 253017
aked 252999
ĠFoster 252895
Ġrunners 252807
ĠNA 252702
Ġdestroy 252677
Ġsupportive 252637
ĠRacing 252628
Ġtrademark 252566
Ġjacket 252495
Ġhorror 252455
ĠAle 252455
Ġass 252429
Ġsch 252399
abb 252340
Ġplanes 252335
Ġimpression 252236
ĠEarly 252163
ĠPompe 252155
Ġking 252148
Ġsilent 252130
ĠCuba 252092
Ġmedication 251995
ences 251941
list 251923
ailing 251871
WA 251818
ella 251743
Ġprop 251725
Ġhalt 251625
Ġslowing 251579
ĠFoods 251546
Ġanonymous 251528
kh 251438
Ġtraveled 251425
Ġcommunicate 251405
Ġter 251391
ĠHockey 251368
ĠRobin 251362
Ġswept 251307
Ġclinic 251285
ration 251238
len 251213
Ġau 251159
Ġcareers 251087
ĠSound 251020
Ġaddresses 251012
China 250999
ĠSr 250981
Ġexhibit 250957
ĠMotors 250939
ĠIl 250936
Ġinstall 250909
ĠOkay 250843
Ġ>> 250738
hood 250728
stand 250694
Ġaudit 250681
Ġcake 250629
Ġflames 250606
bel 250598
ĠMust 250592
ĠManafort 250590
Ġcommodity 250589
night 250521
ĠRoom 250519
ĠLanka 250431
Ġcommander 250430
ln 250425
Ġdatabase 250402
ĠSet 250399
Ġgraduated 250342
ĠTarget 250205
Ġoutbreak 250183
rou 250178
ĠPope 250161
ĠEqu 250156
Ġpolling 250150
Ġdig 250117
Ġbrutal 250031
ĠBarn 250024
Ġdefinition 250012
Ġpit 249984
Ġpickup 249883
ĠBitcoin 249881
ĠReid 249875
Ġloving 249839
ĠHerald 249820
ĠCanadians 249716
Ġneighbor 249716
Ġdies 249657
ione 249650
ĠRef 249633
big 249603
Ġguards 249535
including 249530
ente 249484
Ġpartially 249481
Image 249453
Ġbulk 249430
Ġslot 249408
ĠNorthwest 249303
ĠBarclays 249161
Ġairlines 249133
iver 249004
isi 248991
Ġsubsidiary 248928
Ġcont 248860
ĠDaniels 248806
Ġscript 248801
Ġunfair 248800
Ġscreens 248788
Ġprof 248786
ĠIrma 248756
Ġ1992 248730
Ġmandatory 248668
ĠSant 248660
Ġsuspicion 248616
NES 248570
ĠLauren 248531
igen 248483
Ġprevention 248438
Ġtension 248435
ema 248328
Ġtasks 248293
Ġshake 248278
Ġexplosive 248278
Ġaffects 248165
Ġmum 248143
ĠDog 248039
rer 247945
Ġopted 247934
Ġtrio 247924
Ġlesson 247918
Ġautomotive 247899
where 247868
ĠMontgomery 247858
Ġcouples 247855
Ġ89 247809
AF 247739
Ġinfo 247717
ĠForm 247696
Ġspectrum 247675
Ġbands 247663
Ġokay 247636
Ġstroke 247605
ĠNetanyahu 247525
Ġwealthy 247443
ĠAround 247389
ĠGlenn 247323
sec 247278
there 247274
ickets 247271
ĠBudget 247260
ĠBMW 247215
Ġflagship 247052
rier 246999
Ġpodcast 246986
Ġpursuing 246929
Ġpos 246892
ĠIslands 246866
ĠUrban 246863
page 246845
Ġemotions 246814
ided 246762
Ġdividends 246755
Ġboom 246713
Ġaccusing 246710
ird 246566
ĠNam 246562
ava 246466
Ġwishes 246446
ĠNy 246443
ĠStanford 246416
Ġcriteria 246399
ĠJews 246369
Ġengineers 246276
Ġaccuracy 246272
Ġdisplays 246270
Ġdeserves 246245
ridge 246200
omm 246197
aur 246184
Ġdramatically 246175
Ġunity 246152
speed 246149
Ġdeclining 246097
Ġpermits 246079
ĠKn 246042
Ġconsulting 246018
aux 245998
ATE 245996
ĠWat 245993
ĠEditor 245991
sy 245897
urn 245844
ĠUsing 245716
asc 245711
ital 245705
Ġcre 245700
quality 245676
Ġce 245653
Ġenemy 245609
Ġoffence 245596
icket 245545
ĠDick 245521
ĠTH 245503
ĠChampionships 245428
Ġoverwhelming 245401
rib 245388
ku 245383
rap 245248
Ġhomer 245172
acion 245152
member 245137
erv 245074
aney 245043
MB 245042
eded 244980
Ġpunishment 244959
Ġnegotiate 244923
ĠFile 244912
stream 244856
ĠHur 244828
Ġnose 244823
ĠFab 244822
iter 244770
Ġpainful 244758
ITY 244729
eren 244674
Ġcollecting 244611
Additional 244469
Ġentrepreneurs 244387
bal 244356
Ġexploring 244340
Ġguitar 244337
Ġpartnerships 244314
Ġfurniture 244305
Ġauthorized 244293
Ġeasing 244254
shirt 244222
ĠGross 244154
Ġpolitician 244148
ĠSimpson 244110
Ġdrone 244096
ĠKatie 244062
Ġprofitability 244008
ĠNHS 243979
ĠSierra 243908
ĠNorway 243887
ASHINGTON 243839
ific 243838
Ġcondemned 243778
team 243778
ĠNebraska 243649
Ġthrilled 243618
iller 243601
Ġpatrol 243595
ĠWR 243536
orm 243534
Ġspectacular 243522
ĠKnight 243506
ĠTravel 243505
nam 243497
Ġmuscle 243462
ĠRain 243456
ĠColombia 243454
Ġnursing 243434
Ġmigration 243353
ĠMitch 243313
Ġreleasing 243279
ĠBesides 243267
ĠMul 243223
Ġheadline 243174
Ġcontemporary 243163
Ġdev 243152
ĠChan 243103
Ġindicates 243076
ĠAp 243011
ĠLt 242932
ĠMarvel 242910
Ġremembered 242909
Â® 242849
ĠForces 242795
ĠColin 242776
ĠGabriel 242768
Ġobjects 242766
ĠRHP 242738
kar 242727
ĠKo 242709
Ġsignals 242709
Ġinner 242578
real 242536
RO 242499
Ġromantic 242487
cat 242471
ĠKel 242436
Ġgut 242426
ĠBoys 242424
Ġyoungest 242414
ĠCeltics 242389
Ġslated 242387
Ġremind 242331
Ġproductive 242273
set 242131
Co 242040
ĠBailey 241995
Ġrenewable 241800
ĠCarson 241745
ĠDj 241718
ĠKos 241713
Ġurge 241706
Ġfin 241671
Ġpursuit 241658
ĠCON 241557
ĠChapter 241500
Ġpal 241483
Ġgate 241477
ĠPackers 241462
ĠReports 241448
ĠRugby 241403
ĠMasters 241375
MO 241368
Ġ98 241361
Ġcatches 241249
ĠAgreement 241190
ĠTillerson 241190
ĠIce 241181
Ġrumors 241131
ĠLeonard 241093
ĠDolphins 241073
ĠLP 241045
top 241036
ĠCrist 241000
ĠHon 240978
Ġblaze 240907
Ġrhetoric 240824
ands 240812
ady 240806
David 240802
igh 240783
Ġbuzz 240716
ĠStrong 240664
Ġshocking 240509
ĠRh 240409
Ġnegotiating 240405
Ġtender 240391
ĠJohnny 240322
ĠMario 240296
Ġ97 240284
ĠHeritage 240277
Ġexists 240260
Ġprayers 240246
Ġlengthy 240209
Ġsafer 240201
ĠHalloween 240154
ĠJared 240139
ĠConnect 240113
Ġbump 240086
Ġstrain 240037
Ġfilling 239957
Ġtrauma 239945
Ġcompleting 239916
cht 239915
Ġkillings 239869
anne 239817
GE 239800
ĠRescue 239799
Ġdealers 239731
Ġlocals 239671
ĠVictor 239654
Ġtragic 239648
Ġdelivers 239634
orts 239603
Ġrugby 239581
Ġinstallation 239554
asa 239547
ĠBart 239539
Ġjournal 239496
school 239410
ĠCome 239385
ĠVeterans 239341
Sun 239331
Ġcrowds 239300
Ġtransparent 239217
Ġimplications 239205
ĠHuawei 239145
sex 239110
Ġrallied 239109
Ġresponses 239055
Ġdebris 239053
Ġconvention 239022
Ġmothers 239015
BE 239008
ĠRoute 238967
Ġrebel 238965
ĠEmmanuel 238949
aster 238943
Ġunderstands 238899
pound 238873
ĠCastle 238863
Ġ2021 238862
rik 238848
ĠGR 238822
Ġconvince 238722
ault 238695
Ġpassionate 238681
ĠSciences 238680
Ġarrives 238591
idad 238579
Ġcelebrities 238555
ends 238509
ĠFans 238499
Ġdish 238479
ĠCorps 238475
hat 238472
Ġemployer 238441
ĠHy 238429
Ġpowered 238307
Ġgrandmother 238305
ĠFL 238236
oured 238147
VE 238087
ĠInst 238000
ĠPerez 237971
Ġtune 237931
Ġcitizenship 237929
Ġignore 237914
Ġdoubles 237904
IB 237862
Ġprogrammes 237825
inda 237799
Ġentities 237794
ĠInterior 237663
Ġprompting 237644
Ġwire 237632
Ġtheatre 237611
%) 237500
Ġheels 237407
ĠJu 237404
Ġdeposits 237370
Ġtrash 237323
mond 237314
she 237275
iana 237239
Ġislands 237233
ĠTommy 237104
Ġpub 237027
Ġdiscipline 237006
ĠSW 236984
Ġmusicians 236981
Ġembassy 236789
ĠQB 236789
hander 236747
UES 236737
ĠFerguson 236551
Ġblocking 236527
ahn 236516
Ġfines 236497
Ġtactics 236496
Ġbullet 236470
Ġequipped 236469
Ġescaped 236392
ĠSil 236333
ĠPack 236316
ĠAthletic 236291
ĠMic 236276
ĠDoes 236264
ĠCarr 236214
ĠChargers 236191
ĠKyl 236188
Ġzones 236160
µ 236154
iki 236071
Ġgreatly 236046
ĠMD 236036
Ġimmigrant 236026
ĠConstruction 235988
ĠBorn 235975
iment 235975
ĠWade 235965
Ġvisa 235898
Ġgenuine 235870
Ġelectronics 235844
ĠSat 235821
Ġsponsors 235812
ĠMontana 235801
Ġspell 235768
ĠSachs 235758
ĠEt 235743
Ġfoster 235723
Ġlocker 235718
Ġexplaining 235613
ĠAge 235589
Ġgunman 235587
Ġsauce 235529
Ġcry 235490
Ġstimulus 235460
Ġarray 235452
Ġcompare 235421
Ġboats 235413
Ġext 235407
iders 235389
ĠAst 235384
ĠParks 235267
ester 235243
Ġ94 235231
Ġrelating 235182
Ġvegetables 235151
Ġaccountable 235144
Ġhyper 235065
ĠWim 235029
Ġnewest 235010
ĠRome 235006
ĠChancellor 234921
CBS 234913
Ġbusinessman 234897
ĠDelaware 234886
Ġlands 234842
court 234835
aria 234832
Ġapproaching 234797
cker 234727
ĠSalt 234708
ĠMak 234647
Ġtreating 234596
Ġsubsequently 234580
ĠEll 234532
xton 234512
Ġ180 234510
Ġdetermination 234453
ĠSalman 234438
ĠJoel 234425
Ġclassified 234380
Ġspan 234346
Ġearthquake 234317
ranked 234313
Ġ96 234307
ĠTiger 234286
Ġadvocacy 234266
mit 234214
Ġcolleges 234174
ĠYeah 234152
ĠCaptain 234104
Ġorange 234073
Ġprojections 234033
Ġelectrical 234000
ĠMA 233995
olog 233978
ĠNewcastle 233978
oppers 233977
Ġrepresentation 233962
Ġlawsuits 233866
just 233815
aced 233801
ĠRace 233798
ĠAqu 233668
ĠBills 233640
Ġexclusively 233540
ĠProfile 233501
Ġhometown 233463
ĠStan 233456
Ġstarring 233430
Ġdeciding 233395
ĠRating 233375
ĠMedicare 233371
ĠTransport 233078
Ġmystery 233075
ĠTa 233049
ĠPad 233012
ĠSwedish 233010
ĠCarroll 232991
about 232962
Ġtorn 232844
Ġnurse 232811
NE 232793
Ġwaited 232737
ĠJeffrey 232725
ĠUntil 232713
Ġbone 232693
ĠBobby 232615
Ġpronounced 232590
Ġpharmaceutical 232583
ĠGallery 232573
ĠMatch 232560
Ġeconomists 232513
ĠMarketing 232462
face 232439
ĠPetroleum 232428
ories 232423
ĠMets 232383
ĠCore 232347
billion 232344
Ġexamination 232280
ĠPorter 232235
2016 232190
Ġgolden 232125
Ġsem 232123
ĠDuterte 232111
ĠJefferson 232100
ĠTehran 232062
ĠLeicester 232056
ĠDA 232023
Ġadapt 231967
ĠDame 231908
ĠRic 231882
Ġunchanged 231866
ect 231844
Ġsections 231835
kg 231767
igned 231764
Ġfilings 231697
Ġreact 231683
Ġurgent 231677
Ġvessels 231669
Ġspark 231622
Ġbutter 231608
ĠCons 231529
Ġstating 231500
Ġcorporations 231487
ĠHus 231467
Ġdamaging 231452
raw 231443
Ġequality 231322
Two 231276
ĠMills 231269
iu 231247
Ġobligation 231210
ĠBrook 231116
arian 231084
Re 231078
Ġphotographs 231025
Ġepic 231001
ĠStudent 230993
ĠTherefore 230991
Ġgod 230906
ĠFILE 230849
iqu 230840
Ġdescribing 230775
Ġproceed 230749
Ġcas 230744
ĠKat 230721
ĠBra 230711
Ġadequate 230700
Ġpassage 230682
Ġthanked 230666
USA 230646
ĠNeither 230641
ĠLegislature 230603
Ġfinances 230557
Ġinst 230552
ĵ 230545
ĠAngels 230421
Ġvet 230418
ĠDead 230400
Ex 230337
Ġkicks 230305
force 230284
Ġsoy 230253
ĠWindsor 230216
Ġenhanced 230200
Ġ1993 230199
ĠCzech 230184
Ġgradually 230183
ĠMagic 230117
Ġshadow 230099
Ġneighborhoods 230049
ĠRivers 230024
Ġrapper 229987
ĠGirl 229958
ĠRot 229950
Ġcrackdown 229936
fish 229910
Ġpreventing 229895
Ġproduces 229858
ĠMi 229837
Ġnotified 229795
Ġunderground 229737
WE 229737
Ġadmits 229685
Ġboxing 229658
Ġrefer 229633
Ġcommitments 229593
ĠWoman 229582
Ġdenies 229566
col 229525
ĠSide 229520
Ġambulance 229517
ĠRodgers 229507
Ġaftermath 229473
Ġdeck 229472
irmed 229435
Ġerrors 229365
ĠConvention 229308
Ġcurb 229304
ĠShop 229298
ĠThai 229208
Ġma 229208
Ġrespected 229158
ĠMVP 229153
Ġborrowing 229130
Ġcruise 229080
ĠSure 229078
Ġsentencing 229060
ĠObamacare 229004
ĠIr 228929
ĠSale 228914
ĠPete 228834
Ġopenly 228816
Ġstartup 228765
rock 228749
Ġcargo 228474
Ġtelecom 228448
ĠDownload 228390
Ġextending 228364
ĠCurrent 228343
Ġcompetitions 228330
ĠKids 228315
Ġshy 228213
ĠKerry 228148
ĠNever 228132
ĠDevils 228108
Ġprim 228107
Con 228045
Ġcurve 228039
Ġassumed 228007
Ġadjust 228006
Ġimmune 227989
UE 227958
ĠUr 227886
Ġconventional 227883
Ġgrandchildren 227838
ĠBol 227833
Ad 227758
ĠMaduro 227718
fi 227636
ĠUAE 227597
ĠOrgan 227558
Ġindicating 227509
iem 227410
ĠAgainst 227402
ĠAmbassador 227371
ĠSeoul 227348
Ġcriminals 227344
how 227333
put 227306
Ġreminded 227304
Ġparked 227302
lich 227285
Ġcontinent 227265
Ġmatched 227254
ĠNicole 227163
Ġgenetic 227110
Ġhumanity 227079
ĠTem 227077
Ġindicator 227064
Ġvessel 227058
Ġdefendant 227013
ĠGriffin 226927
jan 226803
Ġvend 226749
boro 226745
Ġbrokerage 226692
ĠFall 226646
Ġmere 226635
VILLE 226632
Ġlasted 226625
ĠMind 226595
Ġpatch 226551
ĠInsider 226539
ĠComm 226496
Ġtechnique 226474
ĠIM 226444
ĠCavaliers 226444
Ġshame 226443
Ġmil 226389
oot 226359
irt 226346
Ġcop 226311
ĠLeon 226276
Ġfrozen 226248
Ġslip 226212
pton 226199
Ġpanels 226171
Ġpitching 226141
Ġleather 226139
ĠLogan 226136
ĠNearly 226136
urch 226078
Ġinstructions 226071
ĠRow 226060
ĠKurdish 225997
this 225991
Ġlegendary 225979
su 225975
Ġstabbed 225910
sters 225907
Ġteenage 225870
def 225870
Ġoversight 225857
Ġvolatile 225820
Ġtransmission 225806
ĠSgt 225769
ĠIndigenous 225758
ĠOxford 225757
ĠCasey 225757
Ġcor 225739
Ġsalaries 225730
Ġsponsor 225677
Ġprescription 225668
mat 225659
ĠLeeds 225603
ĠPakistani 225584
Ġevil 225569
Ġtables 225560
ĠAbdul 225538
Ġexpectation 225495
Ġlegislature 225483
ĠLin 225472
¹ 225463
Ġcontractor 225402
Ġshifting 225393
Ġgenerous 225373
ĠEddie 225368
Ġpuck 225363
utt 225341
Ġdubbed 225257
Ġnowhere 225251
Ġbetting 225210
Ġdisclose 225198
Ĥ 225168
ĠFashion 225155
ĠHarper 225055
handed 225016
isha 225000
ĠReds 224981
Ġachievements 224976
ume 224974
Ġshootings 224952
Ġadvisers 224908
ĠEaster 224898
Ġinternationally 224893
ĠWi 224893
ĠGandhi 224874
ĠChristians 224841
Ġrecruiting 224830
Ġexperiment 224819
Ġsol 224790
Ġdifficulties 224756
Ġinfluential 224670
Ġhybrid 224670
Ġformation 224653
ĠBoulevard 224643
Ġflags 224604
Ġformula 224582
front 224555
Ġinclusion 224517
ĠNone 224382
ICE 224300
Ġfilming 224299
ĠLou 224263
ĠReynolds 224248
Ġpump 224228
Ġexceptional 224200
ANG 224200
ĠCorporate 224190
SAN 224177
ĠHealthcare 224128
ĠUkrainian 224119
aron 224114
Ġpants 224098
Ġdrops 224031
ete 224019
ĠStudies 224014
Ġwounds 223973
END 223972
Ġshower 223911
Ġreviewing 223859
ĠGreater 223852
ĠÂ» 223803
itors 223772
alled 223693
Ġsqu 223686
ĠRonald 223638
ĠInv 223524
Ġtougher 223522
Ġbalanced 223505
Ġlined 223488
Ġprinciple 223485
Ġ1950 223472
Ġleak 223433
Be 223428
Ġcircuit 223409
Ġunfortunate 223408
ĠGran 223375
ĠFish 223352
Ġfriendship 223342
asp 223298
OO 223218
Ġobligations 223215
Ġcoup 223199
OK 223127
Ġbreakdown 223060
Ġhook 223015
Ġresearcher 223013
inated 222961
ĠMarie 222958
ĠGab 222874
ĠWA 222852
quez 222839
General 222818
ĠSwift 222811
Ġgust 222785
ĠCarol 222748
ĠCentury 222731
ĠOPEC 222731
ĠRd 222727
ĠCop 222709
Ġsubjects 222695
ĠComments 222671
ases 222670
Ġrelation 222613
ĠEnvironment 222608
ı 222484
Ġgasoline 222483
ĠLog 222470
Ġicon 222462
Ġprofitable 222444
ĠRetail 222349
ANC 222340
Ġappealing 222307
Ġvillages 222295
Ġpizza 222285
Ġmall 222212
Ġtower 222212
ĠLinda 222204
Ġaccomplished 222189
Ġpod 222178
Ġleaked 222164
ĠWed 222160
Ġmer 222053
Ġopposing 222052
!' 222039
Ġstomach 222000
Ġrevealing 221999
Ġho 221984
DF 221968
ĠSterling 221922
Ġsolely 221915
Ġpres 221889
ĠCy 221882
ĠLatest 221847
ĠPitt 221841
ĠThink 221793
Ġcapability 221790
aled 221779
Ġexecuted 221752
alling 221735
ĠSilva 221725
Ġrestricted 221698
Ġdeclaration 221674
Ġkilometres 221645
rol 221614
Ġidentifying 221600
Ġdonors 221578
vent 221567
Ġcostly 221516
ense 221490
ĠSeeking 221489
OURCE 221484
iving 221480
Ġplacing 221416
tech 221410
Ġbottles 221391
writer 221375
ĠSeahawks 221374
oming 221339
ĠArthur 221325
ously 221313
bin 221265
ĠVa 221262
Ġbias 221256
Ġliability 221236
ift 221229
rak 221203
aves 221187
Ġcautious 221165
ĠPrize 221164
iley 221164
ĠSharma 221132
global 221101
Ġwars 221070
sm 221049
ĠRemember 221034
wind 221000
ĠRichardson 220976
ĠSum 220952
ĠVincent 220948
ĠRice 220936
inf 220919
Ġconsultation 220907
range 220896
Ġbacteria 220856
Ġarchitecture 220757
Ġpole 220751
ĠMach 220723
Ġcattle 220694
Ġabused 220606
being 220606
ĠHERE 220593
Ġfame 220569
Ġhearings 220522
ĠBrit 220511
Ġjoins 220499
ĠMcGregor 220459
Ġoppose 220431
Ġcheer 220401
itting 220336
imes 220320
Ġusage 220319
Ġstint 220306
Ġoutlet 220206
Ġshoppers 220200
ĠBaptist 220193
Ġinappropriate 220149
ĠALSO 220141
Ġstealing 220080
Ġpledge 220065
ĠRan 220052
Ġphotographer 220030
Ġprevented 220009
Ġ01 220005
ĠEngineering 219957
ĠProducts 219945
Ġuniverse 219871
ĠMcCarthy 219864
¿ 219758
graded 219714
Ġinspection 219709
Ġind 219683
Fi 219682
aren 219678
Ġprotections 219671
Ġsorts 219668
ĠWorks 219637
Ġbillionaire 219624
ĠGay 219618
ĠiPad 219536
IX 219525
Ġdefendants 219524
band 219524
Ġfarms 219477
Ġhom 219405
gal 219373
iant 219331
Ġnortheast 219327
ĠJoint 219323
Ġcanceled 219277
Ġtoys 219254
Ġrein 219234
ĠTumblr 219228
pees 219200
ĠAut 219155
Police 219130
Ġaide 219118
Ġachieving 219109
Ġmund 219103
ĠCommercial 219087
first 219087
Ġanticipate 219086
iac 219056
Ġprobation 219029
hem 218968
Ġports 218928
ĠKer 218915
Ġsupplier 218906
ĠFather 218872
ĠAnti 218858
ashed 218728
ĠTable 218726
bledon 218675
Ġunf 218645
ĠRash 218613
ĠLeBron 218557
Car 218554
bu 218532
ĠDerek 218523
Ġaccounted 218518
ĠPri 218498
nings 218425
Ġreceives 218403
lev 218401
Ġbilateral 218396
ĠList 218395
ĠLG 218395
ĠJazz 218351
Ġrestored 218351
Ġbattles 218300
ials 218226
Ġoccupied 218226
Ġrepairs 218153
Ġradar 218146
ĠMLB 218134
ĠNC 218128
Ġflexible 218114
ĠCommand 218081
Ġcoat 218080
ĠVir 218054
ĠColts 218046
ĠBC 218044
Ġtwin 218041
Ġprisoners 218034
Ġslowed 217996
hop 217983
ĠInn 217980
Ġconflicts 217976
Ġmeasured 217966
Ġautonomous 217888
ĠBow 217809
Ġdisc 217776
inson 217760
ĠSche 217740
aire 217665
ĠSU 217631
ĠPeterson 217578
Ġdrafted 217549
ĠPelosi 217546
ĠSoon 217527
Ġmechanism 217526
Ġaccountability 217517
ĠNortheast 217499
Ġfo 217481
Ġanalytics 217456
ĠEverything 217437
Ġperceived 217404
bers 217394
Ġcelebrations 217392
Ġinstruments 217369
Ġstrip 217326
ĠJuventus 217323
Ġunfortunately 217304
ĠGA 217260
Ġwrestling 217225
Ġstatue 217189
vis 217182
five 217111
Ġmarine 217102
ĠSamuel 217085
Ġresponsibilities 217048
hill 217029
Ġrecruit 217025
Ġreferee 216931
ĠRail 216859
ĠEagle 216850
ĠCongressional 216841
Ġbreathing 216839
Ġbass 216778
hit 216772
Ġspreading 216745
Ġevacuated 216736
Ġintellectual 216726
Ġsovereign 216711
ocked 216674
Ġslammed 216672
Ġformerly 216671
Ġarch 216663
Ġdifficulty 216500
ĠAFC 216482
ĠFresh 216439
Ġinvite 216414
oner 216413
ĠMich 216352
Ġpitches 216341
stock 216333
Ġinitiated 216275
ĠKu 216271
ĠFlorence 216255
yd 216251
ĠFast 216248
Ġmusician 216176
ĠChile 216144
anga 216142
Ġdairy 216113
Ġcontractors 216061
ador 216055
ĠPlanning 215938
Ġultra 215893
Ġprayer 215865
Ġsuggestions 215842
ĠEk 215831
Ġrandom 215782
ĠSullivan 215701
Ġsensor 215684
Ġhomicide 215672
ĠIncome 215654
Ġsettings 215618
Ġacknowledge 215615
ĠStay 215607
Ġterminal 215525
Ġ1991 215518
West 215504
hard 215428
arc 215404
Ġcombine 215401
Ġprivately 215391
Ġbarrier 215323
Ġmedian 215244
Ġwhereas 215228
ĠTitans 215207
Ġincentives 215140
Ġhistorically 215093
Ġindictment 215087
Ġhiding 215077
ĠPDT 215071
Ġrebuild 215042
hol 215038
Ġpour 214963
Ġairports 214939
ĠEdinburgh 214902
Ġappoint 214860
ĠJul 214807
Ġconfusion 214804
Ġdam 214787
ork 214768
Ġcalculated 214663
Ġhood 214634
ĠTemple 214609
ĠYorkshire 214596
EP 214546
ented 214537
Ġapology 214532
awi 214500
Ġfacilitate 214476
ĠSheffield 214457
Ġrides 214346
Ġcompelling 214340
ĠGonzalez 214331
roll 214279
ONG 214232
UP 214231
ĠAj 214210
pen 214151
ĠVar 214126
ĠIPO 214121
ĠAnimal 214118
Ġshifted 214110
Ġ140 214089
Ġtobacco 214037
El 214012
ild 214000
Ġuncertain 213979
Un 213865
Ġcaps 213825
Ġrecreational 213766
ĠTu 213678
Ġenc 213676
More 213671
iko 213643
ĠEverton 213623
ĠWalk 213550
Ġmurdered 213535
Ġpur 213529
Ġdivisions 213499
ivo 213362
Ġfarming 213342
Ġcourage 213329
ped 213275
Ġcrying 213224
Ġattributed 213191
Ã©e 213177
Ġimplementing 213148
ĠWang 213144
Ġspeeds 213128
alk 213066
aming 213027
eries 213027
Ġavoided 213025
ĠMessi 213014
Ġconsiderable 213006
rt 212967
Ġinauguration 212933
ĠPH 212901
Ġsoldier 212857
Ġore 212844
ollywood 212803
otive 212754
ĠAuburn 212728
ĠSav 212692
ĠPut 212671
Ġemphasis 212652
Ġaf 212651
owed 212647
Ġdiagnosis 212629
Ġcart 212600
Ġassisted 212599
ĠOrder 212585
ĠEstate 212571
Ġintends 212553
ĠCommon 212508
Ġadventure 212503
Ġbeliefs 212502
Ġlasting 212495
cel 212469
Ġdeployment 212421
tra 212418
ĠStories 212403
Ġquote 212394
Ġfeared 212379
Ġconvenience 212375
Ġoptimism 212369
Ġscientist 212362
ĠEnterprise 212361
ĠRex 212358
ĠFel 212356
Ġposes 212347
Ġroot 212331
Ġevacuation 212323
Ġpresidents 212285
ĠRather 212254
Ġgrave 212141
ĠHeights 212058
Ġjumping 212016
driven 211962
Ġaluminum 211952
Ġholders 211948
Ġboot 211881
iber 211881
Ġprecious 211830
uation 211802
FP 211713
uses 211706
Ġcommentary 211705
Ġadvances 211645
ĠNissan 211626
Ġbronze 211577
Ġinspire 211516
Ġstarters 211500
ĠEvan 211488
rah 211463
body 211419
Ġcrops 211415
Ġseeds 211401
Ġharsh 211384
ĠHomeland 211351
Ġenabled 211266
ological 211247
Ġworkshop 211246
Ġchains 211228
amps 211228
Ġamongst 211197
ĠBear 211181
Ġcertified 211147
ĠJulie 211139
Ġmountains 211069
VA 211062
Ġfed 211055
Ġbuyer 210994
ahl 210988
ĠBos 210950
ĠCrystal 210928
Ġquest 210923
ĠStein 210892
Ġacceptable 210879
Ġunbeaten 210872
iring 210853
ural 210844
Ġuncomfortable 210814
Ġpartial 210809
Ġsacrifice 210779
ĠGrande 210714
Ġarrangement 210709
Ġpackaging 210705
screen 210673
Ġmirror 210657
Ġsweep 210643
Ġconnecting 210584
Ġpanic 210579
ĠJacksonville 210418
ĠKremlin 210354
Ġorigin 210295
Brien 210278
Ġnorthwest 210256
Ġcarriers 210150
ĠRiley 210124
Ġaud 210072
Ġappreciation 210068
Ġeliminated 210067
ĠAnalyst 210015
CR 210007
Ġfirearm 209990
Ġaccommodate 209888
Ġstructural 209858
Ġappealed 209856
Ġcharter 209842
ressing 209839
Ġalike 209801
white 209777
Ġslowdown 209746
Ġweigh 209721
ĠPalmer 209712
ound 209613
ĠConn 209595
Ġbranches 209449
Ġace 209446
Ġinsists 209442
yo 209393
ĠLynn 209374
ĠCC 209351
ĠWithin 209343
Ġcoll 209279
Ġsustain 209270
Ġemerge 209255
ĠBattle 209214
VER 209211
Ġaviation 209176
Ġenables 209058
ĠProduction 209012
ĠGrove 209012
Ġnationally 208893
ĠBaldwin 208846
rent 208837
Ġfirearms 208796
irm 208779
Ġconsiders 208763
ĠCosby 208754
ĠMcK 208739
ĠEnt 208733
Ġincumbent 208652
iance 208564
Ġgiants 208484
Ġkan 208460
Ġminimal 208352
ivity 208345
ĠSay 208330
ĠNass 208301
Ġlovely 208278
ĠFurthermore 208260
Ġdisplaced 208192
Ġcontacts 208187
NY 208183
Ġtechnological 208174
ancy 208152
Ġant 208139
ope 208126
ĠFY 208079
Ġfavorable 208016
ĠVirgin 207990
Ġcasual 207938
ĠLat 207931
Ġpopulations 207911
Ġromance 207893
Ġforgotten 207862
Ġfleeing 207862
Ġspecialty 207837
Ġdrill 207836
Ġapplying 207827
Ġcocaine 207818
rea 207755
Ġheroin 207689
Ġsweeping 207670
ĠMaj 207654
Ġtroubled 207497
Ġcolleague 207494
Ġedged 207470
omes 207461
ĠHappy 207455
Â´ 207430
Ġmilitant 207428
boy 207359
aver 207356
Yes 207336
llo 207306
Ġsupporter 207287
ĠSubscribe 207251
ĠBird 207241
ĠGibson 207080
Ġhill 207060
Ġnewspapers 207043
ĠPHOTO 207022
Ġouting 207010
Ġdefine 206987
Ġann 206971
Ġrobot 206951
Ġregret 206944
ĠCould 206925
raz 206897
Ġceiling 206828
Ġorganizers 206818
ĠTw 206782
Ġcriticised 206771
ĠJoh 206753
ĠJe 206737
ĠBulls 206716
Ġteeth 206709
ĠRanch 206705
ĠAndrea 206693
Ġconservatives 206688
Ġmag 206680
vey 206669
Ġpredecessor 206649
ĠJPMorgan 206638
Ġdraws 206636
umber 206621
Ġvaccine 206566
ĠDas 206556
Ġdisappeared 206522
ĠIron 206512
Ġlitigation 206500
vert 206486
Ġbelong 206411
ĠRet 206402
owers 206396
rain 206381
controlled 206362
ĠKil 206336
Ġrehab 206300
ĠAustria 206286
Ġprivilege 206270
Ġbounce 206225
Ġbout 206211
ĠIslamist 206209
Ġtaxi 206137
ody 206127
.'" 206117
Ġdos 206105
shire 206102
Ġaccidents 206059
Ġdemonstration 206043
His 206006
ĠBO 205987
ĠICE 205935
van 205877
File 205865
ĠManning 205825
ounded 205821
Ġdirections 205815
lled 205776
Ġoffences 205742
Ġlaptop 205690
ĠUniversal 205675
Ġmilestone 205671
ĠNarendra 205647
Ġnotion 205646
Ġuns 205637
ĠLower 205569
Ġmidfield 205499
Ġoutper 205435
trans 205422
ĠJa 205322
three 205315
Adds 205291
Ġpressures 205274
Ġprohibited 205269
Ġutilities 205229
Ġbes 205225
ĠReporter 205181
Ġcommodities 205170
leton 205124
Ġslower 205121
EE 205103
auer 205096
Ġtablet 205064
sl 205025
iously 205001
Ġaiming 204957
eland 204956
ĠNEXT 204889
tered 204876
IVE 204876
onic 204814
May 204801
ĠMilitary 204800
Mark 204776
Ġlender 204774
mate 204741
Ġaboard 204721
they 204720
Ġrespondents 204642
Ġconversion 204596
Ġsecuring 204574
Ġentity 204415
ĠHarbor 204408
ĠCu 204374
Ġcats 204360
ĠACC 204334
ĠIbrahim 204299
GL 204243
Ġinvitation 204218
Ġcond 204140
ĠRecords 204123
ĠAdrian 204106
Ġbrave 204105
Ġmineral 204097
Ġsooner 204094
Ġsatisfied 204029
Ġpets 203976
Ġnotably 203975
Ä± 203960
Ġmarking 203909
ĠRO 203853
ĠHaw 203824
ĠVis 203759
Ġmarketplace 203643
ĠNat 203587
ĠForward 203585
ĠLeft 203567
Ġaggravated 203504
ĠClose 203480
acey 203476
Ġlandmark 203450
Ġdisruption 203416
ĠChallenge 203386
ĠDays 203381
ĠCoun 203356
ahan 203348
Ġaides 203348
South 203332
ĠDylan 203316
ĠRavens 203230
ĠNature 203162
lli 203101
Ġdiplomats 203043
350 203030
ĠDrake 203027
tag 203014
Ġlicensed 202922
ĠDenmark 202920
Ġcancel 202830
Ġinstant 202823
DI 202801
Ġpunch 202692
ĠJenkins 202678
Ġstrengthening 202629
des 202566
-$ 202531
Ġallegation 202517
Ġsizes 202510
iza 202485
Ġmentally 202399
ĠResidents 202361
acked 202316
Ġsensors 202310
,'" 202283
illion 202258
ĠChampion 202240
Ġexcessive 202236
Ġhum 202227
ĠComp 202222
rend 202218
ĠLakes 202190
Ġburst 202148
Ġtrainer 202148
Ġclearing 202107
ĠSilicon 202094
Ġ350 202072
DE 202055
ĠGates 202037
ĠHorn 201990
ests 201987
ĠCourtesy 201969
Ġbipartisan 201925
Ġhabits 201922
ĠAlexa 201878
walk 201875
Ġsnapped 201871
ĠEight 201855
itis 201831
zel 201827
Ġcustoms 201822
Ġsouthwest 201750
Ġvary 201738
Because 201738
Ġpayout 201718
Ġaccelerate 201689
ĠBarr 201686
tu 201679
Ġfined 201678
cost 201639
ĠTheater 201629
ĠCorbyn 201585
Ġstem 201583
Ġundermine 201556
.; 201546
Ġstays 201433
Ġbreakthrough 201430
Ġturnover 201428
hot 201385
Ġtriumph 201358
Ġpainted 201337
ĠWinnipeg 201293
ĠKas 201291
ĠStuart 201281
irk 201276
Am 201267
Ġtrusted 201221
aze 201203
ĠLate 201201
Ġaccessories 201115
Ġmemorable 201095
ĠFool 201045
Ġrotation 201043
ĠBulldogs 201035
ĠChen 201016
Ġpoised 201015
ĠMonte 200993
ĠClarke 200941
leading 200933
Ġvenues 200926
Ġbeneficial 200911
ĠLiam 200896
ĠBrothers 200851
ĠNeed 200848
Ġconc 200815
olly 200813
ĠJulian 200775
ogue 200771
Ġfounding 200749
Ġsidelines 200726
Ġdeclare 200720
ĠMember 200697
Ġexamine 200671
abs 200664
Ġboundaries 200643
ĠBrisbane 200631
Ġlaunches 200624
lor 200606
ĠGa 200605
Ġthr 200549
expected 200524
wal 200520
ĠBarnes 200482
Ġclashes 200464
content 200458
ĠClemson 200441
iger 200419
Mar 200363
Ġaccord 200318
Ġsoutheast 200274
ģ 200265
ĠStarbucks 200249
osing 200218
Ġseasonal 200209
icking 200165
Ġloyalty 200150
Ġtent 200111
ĠDy 200102
Ġevident 200093
Ġlobby 200087
Ġtours 200061
Ġbombing 200057
uations 199960
Ġrises 199936
Ġdemonstrations 199855
ĠWATCH 199836
pin 199796
Ġdeb 199773
ĠDraft 199720
rog 199718
Ġseal 199695
ĠPerformance 199677
ĠLGBT 199675
Ġsed 199628
Ġgig 199625
nan 199611
Ġrainfall 199610
Ġfabric 199591
Ġmanages 199455
Ġlifting 199444
ĠMagazine 199437
ĠCriminal 199413
Ġhikes 199402
Ġcatching 199393
Ġ1989 199386
OG 199379
Ġdisappointment 199320
Ġir 199281
ĠEV 199241
stown 199240
pass 199220
120 199206
Ġmedals 199161
ĠSimmons 199146
Ġinaugural 199116
ĠCorn 199111
Ġmotorcycle 199088
lets 199070
ĠSkype 199069
Ã©t 199065
Ġscary 198992
opp 198991
thirds 198991
ĠMohamed 198988
Ġteenagers 198972
ANK 198972
Ġserver 198876
Ġouts 198871
Ġdishes 198834
four 198784
dr 198771
ĠOt 198641
ĠSandy 198607
ĠShane 198563
orters 198537
SH 198535
Ġtouching 198532
ĠNike 198507
ĠHBO 198432
driving 198411
Ġplug 198349
ĠBaseball 198316
eling 198310
hn 198310
ulate 198291
eed 198291
ĠChristine 198236
ĠGlobe 198222
Ġethics 198213
ĠTrevor 198156
iya 198155
Ġ360 198084
Ġawaiting 198070
Ġcounterpart 198029
Ġsubsidies 198019
pointers 197994
Ġspy 197990
ILL 197972
Ġtakeover 197967
ĠBeyond 197954
Ġsurprisingly 197946
TION 197924
ĠSong 197885
Ġni 197882
Ġcommonly 197822
Ġjack 197774
Ġsubstitute 197762
ews 197717
Ġrecalls 197711
ĠCommons 197675
Ġsin 197661
del 197657
ĠMod 197647
Ġpressing 197626
ĠTelevision 197617
ĠInside 197598
ª 197579
Ġbacklash 197563
Ġcredible 197561
ĠJenner 197544
ĠPu 197538
ĠStevens 197411
ĠWE 197393
Last 197370
Ġinsurers 197359
ĠJoin 197327
bled 197322
digit 197303
Ġflooded 197272
ĠShore 197268
ĠTrophy 197266
zing 197262
ĠImmigration 197255
Ġsuperior 197246
IAN 197227
Ġcasino 197214
Ġenabling 197137
Ġmeantime 197103
Ġperformers 197101
Ġproportion 197072
Ġlawmaker 197067
ĠConf 197066
Ġconvert 196985
Ġfarmer 196964
Ġbu 196944
ĠGE 196940
ĠRepresentative 196910
ĠBannon 196860
ĠHelp 196853
PT 196838
formed 196815
ĠSuperintendent 196793
Ġfrustrating 196733
ĠRegister 196724
ĠPolitical 196714
Ġboots 196691
ĠRu 196663
ĠSha 196620
Ġinstrument 196593
tor 196540
ĠBelt 196518
ĠWalsh 196511
Ġrecipe 196502
ilt 196500
ĠClean 196441
iors 196438
Ġtwenty 196390
iler 196290
nder 196210
Ġwinger 196208
Ġwheat 196207
ĠAviation 196204
Ġcorrupt 196197
Ġconnectivity 196177
ĠVen 196088
order 196086
esc 196083
break 196057
Ġmetals 196019
Ġtraditionally 196002
Ġbell 195986
Ġviolating 195959
rough 195949
Ġintroducing 195920
Ġguided 195892
ĠMol 195875
Ġdesert 195842
ĠBree 195837
Le 195811
ĠZone 195796
ĠGlass 195765
ĠEUR 195763
ĠYahoo 195691
Ġlaps 195680
Ġdiffer 195546
ĠHold 195533
Ġtimely 195525
Ġsuccessor 195514
Ġcomic 195472
Ġbears 195464
Ġlicence 195441
Ġreject 195439
Ġsophisticated 195439
Too 195310
Ġobjectives 195299
ĠId 195294
urers 195292
Ġraid 195226
COM 195219
Ġelect 195203
ĠHampshire 195163
Ġlens 195147
Ġdesigners 195142
Ġpresently 195130
ĠRCMP 195114
ĠEgyptian 195031
ĠWalter 194979
ĠWallace 194971
Ġ2025 194967
utics 194956
ried 194853
Ġrefuse 194826
Ġsiblings 194815
ĠNothing 194814
Ġdressing 194813
Ġnerve 194776
AST 194776
Ġuncertainties 194753
Ġtale 194747
ĠTalk 194707
Ġissuing 194655
shot 194643
ĠTak 194612
Ġacid 194589
ĠNintendo 194544
Ġwash 194485
pd 194423
ĠClaire 194418
ĠScot 194411
Ġsuits 194409
ĠBayern 194325
gest 194295
Ġapplicable 194235
Ġinteraction 194199
ĠEnforcement 194180
ĠRohingya 194170
Ġjan 194156
Ġunited 194153
ĠCoalition 194135
Ġlegislators 194121
Ġdetectives 194073
ĠSing 194073
ĠBetween 194006
ĠPoly 194000
pool 193988
mal 193977
Ġreply 193959
Ġschemes 193948
ĠHolmes 193922
ĠSenators 193916
ĠVerizon 193910
Ġwelcoming 193894
ĠCricket 193893
ĠMarco 193874
ĠYears 193838
ĠLiving 193837
Ġcounterparts 193822
ĠParadise 193814
ĠTrad 193791
# 193789
iw 193784
ĠSoccer 193776
umbled 193773
Ġdeceased 193750
heim 193748
Ġevaluation 193694
Ġwrap 193657
Ġmild 193643
aji 193642
ĠUCLA 193638
ĠNative 193620
president 193620
ĠXbox 193578
Ġenterprises 193545
ĠSlam 193517
oga 193503
Rock 193474
piece 193456
ĠColeman 193447
Ġcomparable 193440
uba 193425
Ġprovinces 193409
ĠFormula 193409
ipt 193402
Ã´ 193366
Ġtick 193331
ĠIMF 193276
anch 193272
atta 193255
rew 193231
However 193160
LS 193114
etta 193107
ĠCustoms 193103
SU 193103
Ġpublishing 193070
Ġinch 193052
Ġkills 193023
¤ 193021
ĠSus 193008
ĠBeth 193008
Ġsteam 193005
jpg 192988
pointer 192979
Ġturnovers 192911
Ġpowder 192848
ĠUSB 192848
ĠWildlife 192801
ĠDirect 192796
atively 192771
ĠFerrari 192733
Ġpleasure 192630
ĠMatthews 192603
Ġski 192576
ography 192557
ĠVermont 192554
ĠMargaret 192541
ĠMunich 192522
Ġlayer 192514
ĠProperty 192475
Ġeconomics 192437
ĠCrew 192394
UK 192387
Ġunnecessary 192384
ĠGlasgow 192370
Ġsealed 192312
Ġclarity 192264
Ġsurplus 192232
ĠCanyon 192198
ĠApart 192180
Ġacceptance 192167
ĠEllis 192163
uster 192093
rid 192084
ĠHawks 192073
Ġstatewide 192046
Ġthreaten 191892
ĠJail 191891
Ġinclusive 191824
Ġmud 191797
Ġpat 191777
Ġbitter 191773
Ġalternatives 191767
Ġaffiliate 191734
Ġevaluate 191698
ĠBaby 191695
Ġperception 191687
tim 191672
Ġrefusing 191656
Ġgrey 191645
Ġarguably 191615
Ġfirmly 191581
ĠDark 191536
Ġexcuse 191534
ĠRaymond 191508
Ġballots 191476
inton 191454
Ġ125 191441
ĠCatherine 191429
Ġsacks 191414
ĠDeb 191396
Ġworkout 191380
web 191374
Ġbatteries 191368
breaking 191318
ML 191296
Ġunacceptable 191271
ĠValentine 191243
ĠYOU 191207
ĠRT 191207
Ġjurisdiction 191173
Ġexamined 191129
strom 191124
ĠPocket 191101
Ġcement 191056
Ġuniversal 191047
ĠOz 191030
Ġkit 191015
Ġchurches 190963
Ġsuburban 190925
ĠKushner 190912
ĠDavidson 190886
Sports 190854
email 190844
Ġrealistic 190841
Ġintend 190815
ĠGrey 190798
,'' 190783
Ġscholarship 190783
Ġphilosophy 190748
Ġwheels 190685
Ġmotivation 190683
eway 190678
match 190672
ĠDate 190620
John 190609
Ġcontrolling 190599
750 190597
aven 190592
Ġfilmed 190577
Ġ160 190558
ĠBrock 190550
ĠDetails 190507
Ġlogistics 190499
Ġassumptions 190386
ĠStep 190382
Ġfails 190362
ĠNotre 190336
Ġjuice 190315
Ġcounting 190311
Ġphotograph 190282
Ġfortunate 190266
Ġestablishing 190236
ĠNJ 190207
ĠWorkers 190178
ĠQuinn 190116
ĠHeather 190092
Ġtimeline 190053
Ġimported 190030
ĠNASCAR 190011
Ġexercises 189985
Ġsearched 189968
ĠRalph 189957
alf 189929
Ġgene 189922
Ġdependent 189864
Ã©n 189857
iate 189853
ĠBristol 189836
Ġhung 189786
Ġtropical 189778
Ġintensity 189734
ĠIdaho 189723
ĠMull 189707
Ġsuite 189707
Ġblockchain 189627
cz 189621
ovich 189589
Ġworn 189586
ĠLE 189521
AV 189504
emi 189435
Ġidentification 189420
Ġtunnel 189387
ĠARE 189374
ĠArm 189357
Ġoutrage 189356
Ġtwist 189342
uka 189333
ĠGra 189303
Ġjets 189288
ĠThus 189274
Ġcompound 189255
Ġfinancially 189228
2019 189217
asse 189165
Ġspare 189163
ĠNoah 189160
ĠMade 189141
ĠMom 189124
Ġphenomenon 189118
Ġnurses 189093
Ġoutlined 189039
Ġpolit 189035
ĠCarm 188970
Ġleagues 188962
Ġmath 188950
Ġmodified 188895
Ġwillingness 188888
ĠAmanda 188881
Ġgrandfather 188866
Of 188861
DR 188860
Ġdip 188833
ĠRAM 188821
ĠChristie 188812
Ġargues 188801
ĠEX 188737
ĠNine 188706
ĠScroll 188625
ĠTHIS 188619
Pro 188531
Ġkeys 188521
Ġprocessor 188513
Ġscam 188486
ĠTraining 188464
Ġhoney 188434
Ĵ 188366
Ġfacebook 188355
ĠLegal 188339
Ġaging 188328
Ġspiritual 188257
ĠHost 188242
Ġlung 188216
ĠUSC 188187
Ġdirt 188177
Ġfe 188141
after 188040
ĠDiana 188019
Ġounce 188009
date 187984
ĠFinals 187920
Ķ 187919
Ġthorough 187901
Ġviable 187893
Ġanytime 187866
Ġfost 187806
orter 187792
ware 187732
ĠHolland 187679
ĠMand 187655
ĠSend 187605
2013 187575
ĠVolkswagen 187551
Ġsuitable 187546
ifies 187488
Ġcomedian 187471
Ġneighbours 187464
ĠKnow 187434
Ġcurious 187433
ĠTwenty 187427
ĠPrevention 187380
ĠStephanie 187341
Ġpilots 187323
Ġstored 187276
Ġdire 187261
Ġfits 187206
ision 187206
ĠShell 187191
Ġshifts 187178
Ġpepper 187171
Ġattendees 187169
ĠName 187142
hers 187139
rip 187138
Ġwatchdog 187128
andy 187127
Ġbio 187114
Ġpublisher 187065
powered 187060
ĠCM 187032
rian 186968
ĠRand 186965
wise 186903
ĠJesse 186884
Ġladies 186848
ĠMetropolitan 186846
ĠMicro 186814
Ġkicking 186785
Ġmeg 186783
Ġclouds 186781
Ġtrim 186778
wear 186730
ĠML 186727
Ġconsists 186712
Ġrig 186676
Ġhonestly 186634
GS 186602
ĠNicholas 186582
Ġcope 186577
Ġpublish 186575
working 186565
bur 186562
ĠNar 186556
olds 186540
aja 186538
ĠSad 186502
Ġclicking 186476
Ġbids 186457
ĠZuckerberg 186446
Ġ900 186417
Ġexam 186411
ivers 186396
Ġpray 186389
Ġreader 186320
ĠSeth 186304
inem 186228
Ġconfront 186223
stra 186214
AW 186188
ĠGian 186186
Ġaccordance 186182
Ġinteract 186147
ĠSharks 186096
Ġfireworks 186096
gment 186083
illy 186073
Ġconst 186064
ARY 186036
Ġprizes 186013
Ġshoulders 186009
Ġaccessed 186007
Ġecosystem 185997
Ġlicensing 185967
La 185946
Ġdedication 185931
ĠdÃ© 185927
Ġyouths 185912
lem 185884
Ġtoy 185871
ĠProm 185854
ounding 185840
rod 185836
Ġ1000 185825
ishes 185778
Over 185753
Ġgaps 185753
Ġmissions 185745
Ġrailway 185743
Day 185692
orp 185686
ĠSchumer 185651
Ġeclipse 185641
Ġshell 185618
ĠBY 185594
Many 185589
ĠRecord 185586
Ġdrunk 185573
ayan 185543
Ġsuggestion 185522
Ġdefenders 185505
ĠNewton 185499
Ġdisputes 185409
Ġevolution 185351
Ġcredibility 185333
ĠTenn 185322
Ġplain 185317
size 185290
cont 185273
Ġlone 185252
Ġfingers 185245
BUR 185244
ĠInvestigation 185243
ĠQualcomm 185225
var 185218
Ġcountless 185211
ĠRebecca 185206
½ 185160
abi 185159
Ġreflecting 185137
ĠTurn 185118
Ġinteractive 185097
Ġincentive 185070
second 185042
offs 185040
ĠBerkeley 185014
ĠTexans 185010
Ġheated 185009
Ġscorer 184980
ĠSharif 184965
Ġmigrant 184951
west 184948
ĠHoliday 184841
Ġwrist 184824
Ġchairs 184788
Ġrecommends 184782
ĠWildcats 184765
ĠPed 184748
ĠQuarter 184706
ĠIV 184673
ĠArch 184646
Ġstandings 184641
Ġbombs 184598
Ġcapped 184582
Can 184556
Ġcaring 184536
ĠLah 184523
lim 184522
Ġdragged 184511
ĠBeat 184491
DB 184482
Ġaired 184461
Ġjeans 184451
action 184416
Ġgenerating 184413
ĠGir 184409
risk 184397
lon 184396
stage 184351
âĤ¬ 184333
earing 184215
ĠTogether 184126
Ġreun 184122
ĠCorey 184099
ĠBak 184079
Ġprestigious 184073
Ġapplicants 184041
here 184024
ĠMattis 184020
Ġridiculous 183972
ĠLess 183957
Ġrains 183938
Ġpresenting 183935
anti 183913
Ġdisabilities 183880
Ġapartments 183868
storm 183847
ĠHem 183769
Ġhabit 183698
ĠRuth 183693
ĠNPR 183642
nut 183631
Ġappreciated 183628
Ġseparation 183577
uda 183563
Ġminus 183553
ĠPhotos 183516
Ġblew 183511
ĠVoice 183476
Ġrallies 183422
Ġfond 183386
ĠTaking 183384
yt 183322
FE 183317
ĠTory 183298
ressed 183225
ĠLy 183222
Ġrocks 183218
ĠRah 183207
Ġelementary 183187
nis 183163
ĠPresidential 183140
Ġnutrition 183140
Ġbaseman 183095
Ġsuperstar 183085
ĠWa 183035
lar 183027
Ġstaged 183018
ĠLearn 183016
Ġbroadcaster 182986
Ġboasts 182984
Ġdoubts 182968
rum 182948
Ġbare 182823
cap 182782
Ġclimbing 182774
ĠSelect 182761
ĠCant 182757
ĠNord 182664
ĠBeck 182625
ĠKad 182584
ello 182582
Ġenforce 182563
ĠZe 182516
ked 182502
elly 182479
ĠLED 182357
ĠOperations 182328
ĠLuk 182310
Ġcertificate 182278
Ġdeter 182267
Ġspill 182240
Ġgrain 182239
league 182231
Up 182220
ĠKid 182198
using 182192
ĠJays 182185
Ġoccasionally 182150
ĠMI 182145
yes 182107
Ġdetect 182055
Ġpropaganda 181967
Ġneighboring 181962
sub 181950
avan 181938
ĠAstros 181932
oti 181911
threatening 181884
Ġshorter 181842
INGS 181817
Ġfeeding 181767
Ġelevated 181759
ĠWenger 181722
Ġundergo 181718
Ġpsychological 181707
Ġautom 181705
NP 181685
anks 181681
ĠNokia 181679
Ġdrones 181678
Ġrecognised 181642
Ġheroes 181615
agen 181602
Ġparole 181598
ĠBah 181592
Ġhomeowners 181592
ĠSweet 181586
Ġinstances 181585
ĠParish 181555
ĠSL 181544
Ġunw 181476
Ġdelicious 181426
¯ 181418
ĠInvestments 181398
ĠPhilippine 181382
inos 181319
Ġmes 181296
Ġbite 181295
Ġcornerback 181289
ĠHat 181248
Ġdeserved 181240
ologists 181201
[ 181192
Ġwrongdoing 181189
ĠTrent 181184
ĠVe 181180
ĠDeal 181178
Mr 181147
Ġovers 181123
Ġhonors 181114
ĠITV 181107
Ġpayroll 181106
Ġconfused 181102
Ġelaborate 181083
ange 181077
World 181041
ĠResort 181027
ilia 181012
ĠKr 181010
Ġconclude 180966
First 180927
ĠDR 180906
Ġpeer 180895
Ġrunway 180844
ĠPotter 180758
cons 180697
bad 180686
si 180683
ĠClimate 180683
ĠHoll 180666
Ġweighing 180646
Ġepidemic 180618
ĠBible 180605
Ġhon 180476
Ġrenew 180457
Ġgambling 180423
ĠNationals 180419
itable 180417
ĠOutlook 180414
Ġreactions 180368
ĠCos 180314
ĠDana 180290
India 180184
ĠAirbus 180170
power 180162
watch 180155
Ġstyles 180123
Ġordinance 180123
Ġcam 180100
Ġinvent 180079
ĠDurant 180044
Ġexchanged 180031
Ġyoga 180027
ĠMichel 180017
ĠWyoming 180009
ĠPhase 179914
ĠHannah 179907
Ġtem 179890
Ġfare 179883
omer 179881
Ġtrails 179873
Ġquietly 179836
ĠFourth 179684
Ġwise 179678
Ġappetite 179665
Ġpedestrian 179642
Ġfierce 179640
hin 179626
ako 179602
Ġvacant 179584
Ġdynamics 179561
Ġbust 179553
ĠGT 179552
century 179535
Ġpermitted 179516
Ġfog 179512
Ġrecruitment 179503
ĠDue 179480
Ġbro 179445
Ġsil 179441
ĠOpp 179437
Ġphrase 179322
ĠChip 179308
ĠBase 179274
Ġjazz 179269
Ġenemies 179268
Ġremainder 179252
bles 179189
Ġ105 179180
ĠGur 179178
Ġretiring 179165
ĠCour 179158
ĠSi 179153
Ġinevitable 179151
ĠAdvisory 179129
ĠCampaign 179096
ĠPeninsula 179090
base 179077
Ġjustify 179067
inen 179058
North 179052
Ġfreezing 179044
Ġphotography 179043
Ġappointments 178992
ĠTree 178959
Os 178947
Ġdivide 178946
ĠMMA 178945
Ġdeclines 178906
ĠAbbott 178836
ACH 178833
ĠJah 178785
Ġspr 178772
Ġskilled 178751
ĠTry 178748
ANT 178746
ael 178732
ĠMcN 178718
Ġtariff 178703
generation 178700
ĠMans 178676
Or 178583
Ġraped 178569
Ġdisability 178558
Ġnominations 178554
Ġhappiness 178553
ĠLSU 178528
ĠInterstate 178473
ĠDance 178470
ĠMaking 178409
Ġbailout 178401
oro 178396
ĠObviously 178391
Ġinbox 178348
football 178347
hy 178274
ĠCase 178254
Ġentertaining 178239
Ġhardest 178210
ĠOpposition 178195
Ġflip 178152
ĠPirates 178090
anu 178076
ĠKlopp 178071
Ġballistic 178031
Ġprinted 177993
ĠNFC 177926
UST 177925
Ġglasses 177918
Ġrum 177896
ĠDuncan 177828
hal 177827
Ġpreview 177772
BER 177752
dec 177747
Ġsustainability 177746
Ġaff 177730
Ġhungry 177703
service 177600
avi 177574
Ġsometime 177547
Ġmod 177535
ĠLib 177516
oko 177494
Ġfundraiser 177455
Ġcrowded 177379
mates 177367
Ġcreativity 177354
ĠHell 177341
Ġtreaty 177334
ĠSoftware 177311
ĠRandy 177251
ĠPolish 177248
sa 177211
ardi 177209
Ġcab 177168
ĠCamera 177124
Ġlicenses 177111
Ġ1988 177089
Ġcontinuous 177075
Ġpaired 177066
Ġtally 177058
Ġgrip 177052
cho 177034
Ġsurged 177015
Ġpodium 177013
Ġcontrary 177008
SL 177003
ĠResearchers 176994
cing 176811
Ġmi 176802
Ġdisputed 176770
Ġgrades 176713
Ġseverely 176707
ĠMcL 176701
ondo 176694
Ġshelters 176647
Ġdomain 176630
ĠSwitch 176620
Ġtestify 176614
case 176566
omet 176554
atch 176538
ĠAff 176535
Ġcasting 176534
berger 176525
Ġintimate 176498
erc 176462
plan 176420
ĠPast 176408
ĠUt 176391
Ġapologized 176380
ĠDet 176339
alle 176307
Ġwhilst 176286
Ġpel 176282
Ġexecute 176279
Ġharmful 176271
ĠRB 176270
onda 176231
ĠFul 176226
II 176223
Those 176157
Ġcryptocurrency 176137
Ġrealise 176125
ĠAthens 176057
ĠApplication 176047
ORD 175994
Ġmidst 175983
ĠSem 175949
Ġmessaging 175941
Ġcousin 175937
ĠMarsh 175935
ĠAlmost 175919
uto 175908
wire 175905
ĠManaging 175883
Ġsends 175860
ĠDerby 175858
Ġpad 175811
Ġdevoted 175806
ĠWorking 175747
ĠWestminster 175712
Ġdirty 175708
ements 175676
ĠLew 175670
door 175656
Ġadvisor 175654
ival 175652
Ġsubscribe 175641
Ġcredited 175636
Ġpressed 175606
Ġbrick 175605
Ġrehabilitation 175599
Ġ"[ 175578
erry 175575
Ġtransformed 175564
arp 175538
Ġreceivers 175531
ĠFan 175530
ĠKris 175492
ĠCharlottesville 175452
Ġste 175441
Ġconstructed 175423
Ġbroadly 175421
ĠBetter 175394
ĠJanet 175300
Ġenthusiasm 175299
ĠIrving 175296
ĠConst 175293
Everyone 175283
agn 175281
ĠCrawford 175281
Ġregards 175252
ĠBurns 175226
Ġjokes 175208
erg 175206
ARD 175192
apped 175173
Ġtravelled 175161
ĠPoor 175135
ĠHolly 175042
Ġcontainer 174995
Ġinfected 174966
Ġlean 174950
ĠWould 174887
Ġmagnitude 174859
ĠDou 174841
minded 174810
Ġpastor 174807
Ġwherever 174738
ulation 174726
Ġ1986 174647
ĠMegan 174644
Ġgraphic 174622
Ġtalents 174599
Ġkn 174583
ĠEC 174582
ĠMcM 174563
ĠKon 174553
eni 174526
ĠEsc 174525
inas 174506
ĠNom 174471
Ġchasing 174399
arl 174367
ĠHungary 174366
Ġmainland 174346
ĠDist 174344
utes 174327
Ġrubber 174325
iat 174305
ĠMorrison 174256
ushing 174253
iny 174227
Ġcopies 174178
ĠFat 174161
agged 174111
Ġfloating 174104
ĠCurtis 174068
Ġfatally 174066
ĠManuel 174064
Ġgraduates 174060
nar 174041
ĠKenny 174021
Ġretreat 174011
Ġretro 174004
ĠPierre 173982
listed 173962
ĠDale 173922
ding 173901
Ġintentions 173892
Ġsentences 173877
ĠSere 173873
Ġinvasion 173872
Ġpremiums 173811
ĠGardner 173805
Ġshipments 173801
Ġcol 173797
bell 173778
ilo 173761
Ġworthy 173710
Ġinterceptions 173706
Ġcomplain 173684
icle 173674
ĠTah 173655
ĠMt 173633
ĠSyracuse 173580
Since 173558
aches 173557
ĠCand 173539
Ġinteractions 173531
ĠShawn 173478
nc 173464
Ġtheaters 173462
ART 173435
Th 173425
Ġalter 173419
aley 173409
imo 173394
Ġresponders 173376
kan 173306
ĠDarren 173301
Ġdeliveries 173285
PI 173265
125 173194
Ġlaughing 173160
ĠPatterson 173159
Ġinfections 173133
Ġtur 173078
130 172985
Ġhackers 172967
Ġwarn 172956
Ġfreeze 172909
Ġscreaming 172908
ĠEcho 172893
ĠDom 172882
MAN 172849
ĠJoy 172813
Ġbeneath 172779
ĠHalf 172764
Ġpatent 172753
Ġugly 172750
Ġlip 172749
Ġnominees 172713
ĠGrade 172706
Ġinfluenced 172703
Ġabilities 172684
Ġlimiting 172673
Ġsmell 172668
Ġesc 172656
ĠBernard 172651
cs 172639
ĠMyers 172563
oted 172562
Black 172552
Ġlim 172546
Ġsworn 172531
ĠBlair 172530
anes 172488
ĠEvent 172486
Ġmature 172477
Ġpositioned 172448
Ġerupted 172412
grand 172403
ĠTell 172399
Ġbackdrop 172356
Ġyeah 172322
ĠClear 172305
Ġsignificance 172285
Ġpatience 172271
ĠWing 172236
Ġhorrible 172235
Ġdeploy 172209
ipe 172202
Ġbitcoin 172200
Ġcommitting 172176
Ġdismiss 172162
ĠBlood 172062
ĠMeyer 172027
selling 172025
Ġregarded 172020
Ġlottery 171992
ĠLuther 171991
Ġpipe 171991
Ġcro 171989
ĠANC 171979
ĠSolar 171925
Ġsimilarly 171923
Ġham 171915
ĠHonor 171901
tar 171890
gin 171870
ĠArmstrong 171857
Ġbrowser 171853
agon 171774
via 171773
Ġentries 171753
Ġinfl 171729
Ġgraduation 171719
Ġalleges 171628
ĠLoading 171619
Ġsuperb 171608
ially 171529
Ġadministrator 171521
uls 171500
Ġartistic 171498
ĠANGEL 171491
ĠBang 171488
Ġfossil 171458
¨ 171438
Ġpoly 171434
ĠGuardiola 171428
ĠPerth 171428
Ġeducate 171416
Cl 171410
Ġcommittees 171395
Ġforthcoming 171384
Ġadjustments 171380
count 171376
Ġincoming 171357
brook 171350
ĠMinneapolis 171331
Ġgown 171302
ĠCroatia 171299
host 171292
Ġcompetitor 171273
Ġlyrics 171257
Ġbelonging 171115
ĠFrances 171095
ĠHaley 171073
ĠBruins 171054
Ġmask 171010
ĠPv 171000
dollar 170994
Ġbowling 170982
Ġjewelry 170958
ĠJulia 170944
Ġbroadband 170910
ĠBhar 170901
ĠArmed 170899
vy 170892
government 170888
kov 170874
Ġpremises 170838
Ġjersey 170834
Ġapplies 170821
ĠFreeman 170769
Ġgrows 170754
ĠEquity 170660
Ġmaterially 170592
Ġfigured 170560
ience 170543
Ġmajors 170531
ĠYe 170454
ĠHey 170433
oned 170432
aping 170423
Ġtoilet 170371
ĠConnor 170360
Ġavoiding 170326
pos 170295
Once 170289
ĠRockets 170274
ĠSnapchat 170245
Go 170202
Ġsolidarity 170200
ĠAffordable 170198
Ġdial 170197
ĠOmar 170151
xt 170143
ĠVatican 170127
anta 170077
ĠSuperior 170045
Ġbeaches 170029
ĠKi 170019
Ã¥ 170017
KY 169975
Ġgro 169965
ĠEmpire 169957
Ġoccurs 169947
Ġjoked 169932
Ġquotes 169901
ĠSaskatchewan 169899
pert 169880
Ġmaintains 169880
olt 169862
Ġupgrades 169852
ĠCho 169833
ĠAlexis 169816
ĠHundreds 169802
ĠBud 169746
Ġcenturies 169728
ĠInvestor 169720
ĠGomez 169712
Ġconceded 169670
Ġexpressing 169667
ĠIBM 169656
Ġadvancing 169648
ĠDollar 169644
jer 169639
Ġexceed 169638
author 169628
rist 169536
seat 169523
ĠPrimary 169487
ĠForbes 169463
ĠAlzheimer 169431
Ġdevastated 169400
Ġawful 169366
ĠStudio 169362
Ġbullpen 169320
Ġmobility 169309
Ġanalyze 169292
lie 169259
AFP 169228
iche 169204
ĠRoyals 169196
Ġcoupled 169190
Ġdug 169178
ĠRing 169172
Ġenvironments 169135
national 169118
ĠCongo 169114
Ġalleging 169108
wn 169099
ulating 169097
Ġur 169065
Ġreaches 169035
ĠPine 169019
Ġthreshold 168999
Ġtournaments 168991
Ġheating 168979
ĠGard 168977
ĠHamas 168976
ĠÂ« 168952
ĠHolding 168924
Ġpossibilities 168902
ĠHassan 168902
ĠMohammad 168898
Ġoffenders 168891
Ġautomated 168887
Ġrealised 168876
ouse 168872
building 168838
ĠDub 168830
ĠGeneva 168816
Ġfacial 168804
ĠRestaurant 168785
ĠNg 168725
Ġtot 168691
Ġgrace 168666
ĠCP 168631
Ġposter 168561
hart 168543
ĠNi 168522
Ġreaff 168493
Ġprov 168471
Ġ111 168460
ĠAid 168459
Ġscrap 168449
izers 168440
ogen 168425
Ġtissue 168414
Ġvibrant 168360
Ġrider 168314
CD 168313
ĠKitchen 168302
Ġgenre 168276
¬ 168274
depth 168229
kind 168215
Ġendorsed 168157
Ġsimultaneously 168079
Ġintern 168065
ĠDrag 168063
Ġembraced 168041
Ġcounted 168034
uj 168015
ĠOg 168011
Ġphysician 168010
ĠIR 167973
IST 167968
ĠKir 167959
Ġhacking 167943
ĠSources 167933
astic 167926
growing 167922
ĠWake 167896
Ġhint 167895
Ġcompiled 167884
Ġreign 167830
Ġcinema 167798
Ġboosting 167791
Ġaccommodation 167781
ĠEuropa 167771
Ġsubsidiaries 167757
Ġclosures 167722
ĠBil 167666
ĠBou 167664
wh 167661
ĠAw 167643
FT 167642
hole 167637
ĠNova 167633
ĠNSW 167558
Ġrap 167545
Ġencourages 167543
GR 167496
ds 167481
ĠMuk 167455
ĠSurvey 167453
ĠReagan 167449
oning 167418
Ġneighbouring 167411
ĠMcCl 167399
acht 167368
Ġfinishes 167359
ĠEsp 167350
pat 167327
Ġdestinations 167266
ĠWagner 167221
Ġconfronted 167217
square 167158
Ġpie 167108
brand 167087
hl 167077
Ġabsent 167065
Ġsurf 167045
Ġrifle 167045
ĠSS 167044
ĠDeath 167038
wich 167009
Ġbeds 166982
ĠLock 166930
ĠAgu 166913
atives 166913
jee 166887
Ġoral 166877
Ġbudgets 166858
Ġinspiring 166856
IONS 166854
works 166852
Ġspirits 166832
Ġcabin 166806
Ġsatisfaction 166779
Ġvoluntary 166777
ĠMunicipal 166766
Ġdeportation 166749
ĠWriter 166743
ĠVI 166741
VERTISEMENT 166738
/. 166711
ĠSouthampton 166709
aces 166669
ĠHelen 166667
ĠHum 166649
110 166649
Ġgarbage 166635
through 166605
Ġkingdom 166595
MT 166594
augh 166549
Ġbizarre 166525
ĠStarting 166524
Ġwooden 166490
ĠProgress 166475
iron 166420
sten 166403
ĠSergio 166372
ĠHR 166364
Ġturnout 166333
ĠAmericas 166308
ĠSara 166303
Ġagrees 166271
apper 166237
Ġbra 166233
Ġrecycling 166221
oom 166202
Ġflee 166199
Ġdistinct 166186
IAL 166158
aha 166143
Ġfever 166140
ĠPartnership 166122
ĠYu 166100
ĠPixel 166100
ĠBlock 166095
ĠMelissa 166090
igg 166083
Ġdecides 166071
ĠNorman 166055
Ġmas 166053
held 166036
ĠPD 166030
Ġsheer 166028
ĠDim 166027
ĠCass 165992
Ġcolumnist 165928
ĠBros 165928
Ġturnaround 165921
ĠValue 165919
ĠBachelor 165910
awn 165889
Ġassignment 165889
ested 165873
ĠJudiciary 165865
Ġdiamond 165860
Ġmus 165844
Ġindigenous 165838
lines 165779
Ġ1984 165748
igroup 165744
ict 165695
ĠJaguars 165691
Ġlun 165625
Ġprofiles 165608
Ġcomputing 165582
ĠBelgian 165530
ĠLloyd 165529
ĠGoing 165467
Ġdisp 165457
Ġ1987 165451
eder 165438
ĠVin 165426
Ġgovern 165423
Ġblend 165419
ĠSebastian 165371
ĠMidwest 165371
iga 165370
Ġspl 165308
Ġtopping 165287
Ġnetworking 165262
ĠEmer 165222
Ġoxygen 165214
ĠInterest 165196
ĠMoy 165172
Ġtrader 165153
Ġbay 165126
Ġsticking 165125
ĠMovement 165115
Ġbidding 165086
tax 165064
Ġacademy 165051
ĠMO 165041
ĠSpirit 165021
Ġhealing 165009
wen 165000
ĠPrix 164975
cal 164892
ĠOperating 164885
Ġinstantly 164882
ĠTonight 164844
Ġsacked 164833
Ġautomation 164818
umps 164818
ĠNey 164763
March 164663
ĠBuck 164658
Ġconcentration 164642
Here 164624
Ġtravelers 164571
Ġprotective 164564
ĠMoody 164562
Ġentrepreneur 164555
Ġfac 164538
kowski 164529
Ġpreparations 164502
Ġdominate 164502
Ġspray 164492
Ġdisturbing 164477
ĠFraser 164405
ĠCody 164382
ashi 164302
ĠPel 164283
Ġrisky 164257
Ġawkward 164252
ĠVA 164245
ails 164242
Ġangle 164233
Ġundergoing 164218
Ġalbums 164197
Ġafterwards 164190
ĠNaw 164177
uge 164136
enter 164136
ĠSussex 164100
ĠRecently 164093
Ġlikelihood 164090
large 164075
Ġsnaps 164074
ibr 164070
ĠMalcolm 164057
Ġcru 164034
Ġaltogether 164034
Ġsetup 164026
Ġtorture 163998
Ġfiber 163983
Ġquarterbacks 163952
ĠGetting 163942
ipping 163926
ĠNorwegian 163921
ĠMiles 163910
ĠArnold 163874
ĠDisease 163864
Ġtends 163801
ife 163789
ĠCaroline 163767
Ġnavigate 163753
Ġbrush 163735
ĠAssociates 163647
Ġbath 163646
ĠCenters 163631
ĠMC 163620
Ġtaxpayer 163601
comp 163591
Ġaccomplish 163571
ĠTraffic 163502
ĠBru 163471
Ġgreenhouse 163463
ĠMalaysian 163460
ĠPur 163450
ased 163430
ĠKnicks 163382
aters 163360
Ġalt 163329
ICK 163296
Ġcalculations 163287
Ġmindset 163284
unch 163277
Ġgu 163267
Ġsteadily 163258
Ġfiction 163223
ĠPap 163180
forming 163159
ĠActor 163156
ĠBerry 163120
imp 163101
ĠUpper 163090
Ġassessed 163078
Ġlawn 163077
ĠRoh 163019
Ġclearance 163009
funded 163004
Ġpret 162993
ĠHom 162946
VS 162946
ĠTourism 162941
ĠRy 162921
ĠGonz 162920
ĠStudios 162841
Ġanchor 162828
Ġrecognise 162821
Ġcooperate 162821
enny 162809
aza 162800
ĠMeet 162709
Ġeventual 162699
SW 162692
ĠCounsel 162683
ĠSave 162679
Ġlucrative 162650
Ġslim 162610
ĠGreens 162565
Ġchemistry 162550
ĠSheikh 162549
Ġbridges 162535
business 162525
ĠSaf 162511
ĠGy 162509
Ġprotocol 162506
Ġnephew 162478
ĠBrands 162457
ĠCulture 162449
orship 162410
Ġ(Â£ 162393
ĠDell 162378
astics 162378
Ġproving 162375
ĠMann 162364
aca 162360
Ġindoor 162344
ĠUganda 162339
ĠRomney 162339
ĠStage 162317
Ġward 162307
ĠAmber 162293
haw 162268
Ġtw 162268
Ġbullying 162265
ĠCAR 162256
Ġassociates 162231
ĠHopkins 162191
Ġsuburb 162167
Ġaggressively 162160
Ġpostponed 162151
Ġbas 162141
Ġburglary 162135
ĠFound 162117
Ġfloors 162085
Any 162079
Ġjam 162064
Ġvisibility 162037
Ġbenefited 162013
ĠAud 161991
aying 161974
iku 161972
ĠPas 161968
ĠGPS 161941
ĠOwens 161940
Ġreluctant 161919
ĠOlivia 161884
ols 161861
Ġemotion 161846
ĠHeavy 161843
Ġhostile 161833
Ġfavorites 161808
Ġfeat 161795
ĠCord 161783
ĠGO 161736
Ġindicted 161736
idal 161735
ĠIL 161728
Ħ 161620
acer 161616
ICH 161604
oda 161601
Ġrecipients 161563
Ġtribal 161549
Ġresist 161537
ĠCritics 161528
Ġsang 161523
ĠMath 161497
ĠBrighton 161491
ĠKw 161467
Ġlimitations 161429
Ġinterception 161424
onde 161422
ĠRobertson 161420
Ġenjoys 161410
site 161390
Ġwings 161372
ĠCeltic 161357
Ġrelaxed 161348
Share 161326
Ġwarrants 161293
oco 161289
Ġcritically 161286
GC 161274
Ġcute 161164
Ġlaying 161163
itude 161154
ĠMediterranean 161142
Ġwatches 161140
Ġdisagree 161125
ĠReturn 161124
ARC 161099
people 161092
Ġtwelve 161088
Ġoverdose 161081
ĠLot 161076
ĠFROM 161064
ĠPeters 161054
Ġadministrators 161004
Ġslam 160987
jar 160981
OH 160973
ĠInitiative 160959
Ġteamed 160951
ĠMajority 160939
June 160938
ĠPlaza 160928
lake 160917
Ġglimpse 160903
Ġrings 160863
Ġos 160840
Ġmentor 160829
have 160787
Ġlanguages 160765
Ġuncle 160757
agu 160753
ĠWine 160753
ĠCategory 160744
ĠIng 160726
Ġcontests 160718
ĠRosen 160701
ĠWhatever 160665
Ġdenying 160655
ean 160649
Ġspec 160616
Ġgrad 160590
Ġtenants 160576
show 160543
ĠGregory 160539
Ġcontention 160534
Ġunanimously 160530
ĠPin 160517
fa 160513
ĠPink 160501
Ġswitched 160493
acre 160491
ĠTrading 160481
VP 160468
ĠMaple 160462
Neill 160449
Ġdiscounts 160447
alls 160438
Ġsounded 160434
Ġrumours 160423
ĠCre 160391
hall 160386
ĠTele 160373
Ġthankful 160370
Ġsurveyed 160352
UB 160335
Ġdignity 160329
Ġnod 160320
Ġmisleading 160286
ĠTX 160278
ĠBurke 160245
Ġmounting 160245
Ġskies 160196
Ġbesides 160191
ĠGarrett 160149
tha 160107
Ġintelligent 160094
Ġtanks 160079
apping 160074
ĠRat 160067
aint 159992
Ġentertain 159989
ĠAbdullah 159960
Ġsink 159957
ĠLan 159947
ĠManufacturing 159941
NFL 159907
Ġthemes 159893
ĠHaven 159882
ĠDavies 159858
ĠKerr 159838
ĠLen 159836
Ġcourtroom 159811
Ġfailures 159796
Ġlately 159787
ĠElectronics 159774
Ġgorgeous 159772
Ġnotification 159740
Ġ2030 159712
aved 159707
Ġdeer 159707
economic 159702
ĠStatistics 159698
Ġconfrontation 159671
Ġgovernors 159630
ĠHaram 159614
ĠLGBTQ 159602
Ġprocessed 159592
ĠDuchess 159583
Ġdowns 159580
Ġpork 159571
Ġhumor 159563
ocese 159553
Ġneeding 159513
Ġmidterm 159510
ĠOval 159492
Ġcorners 159474
Ġtablets 159432
eds 159426
vere 159418
Ġattacker 159397
Paul 159368
pee 159338
ĠAlice 159315
Ġrenowned 159290
Ġ09 159278
ocking 159228
Ġcreditors 159198
ĠPedro 159198
ĠPhone 159181
Ġsurveys 159158
ĠWelsh 159156
Ġcow 159043
Ġbuilds 159039
Ġ000 158992
ĠAzerbaijan 158976
ĠYad 158974
Ġinfant 158974
Ġmotorists 158957
Ġpoorly 158950
Ġmedications 158947
Ġstupid 158908
ĠCastro 158855
user 158842
antly 158831
alty 158800
ĠCond 158796
issa 158790
ĠIvan 158768
Ġcostume 158740
Ġ08 158725
Ġhence 158721
Ġdangers 158668
Ġbullish 158664
Life 158663
Ġflavor 158660
ĠCharleston 158632
Ġbikes 158620
Ġworkshops 158612
Ġarranged 158609
Ġcontender 158591
Ġsequel 158587
ĠPlant 158553
Ġdonor 158522
Ġfactories 158510
rict 158490
ellen 158487
Ġrobots 158454
ĠWor 158446
ĠDirectors 158411
ĠPeru 158388
Ġqueen 158346
ĠTimothy 158342
ĠToo 158305
Ġobservers 158291
Ġears 158289
Ġbel 158285
link 158253
uns 158252
Ġhomers 158242
Ġadjacent 158213
Ġconfidential 158211
Ġstunned 158186
iden 158156
illed 158148
ESS 158145
Ġconvenient 158119
ĠLindsey 158112
por 158040
upp 158026
Ġborrow 158002
ĠAhmad 157998
ORT 157974
Ġrelate 157954
ĠSelf 157895
ĠVanguard 157885
utter 157862
ĠBranch 157853
ĠBolton 157847
bat 157839
Ġoutright 157836
fighters 157813
ĠBed 157797
Ġpes 157785
inski 157733
Ġgunshot 157718
Ġprinting 157718
ĠSent 157674
vern 157613
Ġharvest 157602
Ġbubble 157588
Ġrefund 157586
Ġfuels 157577
Ġdive 157572
Ġdiplomat 157566
Ġpile 157562
ĠVery 157531
rot 157529
ĠSearch 157502
ĠJoyce 157484
ĠPruitt 157468
ĠLevel 157467
ĠBP 157452
ĠLac 157437
had 157436
Ġexpenditure 157426
ĠMadd 157387
Ġpockets 157373
ĠClippers 157373
ĠDear 157353
ĠGive 157351
Ġhal 157333
Ġvertical 157333
Ġwholesale 157315
what 157293
ĠSpringfield 157280
ayed 157274
ĠSom 157264
Ġsecrets 157253
Ġcharts 157235
iar 157218
ibility 157218
LAND 157209
Ġbearing 157200
Ġprom 157195
Ġtab 157179
Ġsheets 157150
ĠGL 157144
Ġendless 157126
opening 157105
ĠOwen 157085
Ġunderneath 157043
ĠErik 157041
ĠDACA 157031
Ġsteering 156983
Ġfootprint 156960
ĠRoma 156910
ĠDucks 156908
ĠEllen 156882
ĠProfessional 156867
ĠGardens 156804
Ġgoalie 156786
Ġshine 156752
Ġturmoil 156752
Ġhunger 156724
ĠâĢĭ 156706
active 156655
hey 156637
Ġblessed 156614
ason 156611
oping 156610
ĠThousands 156596
Ġdose 156594
ĠLor 156592
Ġevolved 156545
Ġcharities 156530
ĠPE 156522
ĠRub 156514
ws 156499
Ġmist 156492
ĠShen 156483
Ġbiological 156482
ĠTweet 156458
Ġcollections 156414
Ġsubstantially 156414
inner 156407
Ġbattled 156400
ĠCong 156375
Hold 156369
wp 156367
Ġwells 156353
Ġsake 156348
Ġunrest 156298
ĠKurt 156289
Ġripped 156285
itation 156274
Ġneighbourhood 156268
Ġinv 156267
Ġcad 156263
ĠCuban 156244
ĠWealth 156227
Ġtuition 156178
Ġdeclaring 156168
sch 156162
orne 156147
Ġwondered 156145
ĠChaff 156133
Ġdealer 156127
ĠNumber 156073
Mobile 156071
Ġscratch 156046
Ġprepares 156013
ĠSens 156010
ĠIstanbul 156002
ĠPanama 155994
ĠCay 155959
Ġallocation 155953
itutional 155929
Ġhar 155902
ĠNazi 155878
ĠSund 155863
Ġwarehouse 155816
Ġbackyard 155768
ĠIll 155741
Ġunlawful 155729
ĠReform 155698
Ġbasement 155685
ĠHi 155658
ĠPictures 155639
Ġtransfers 155631
ĠSell 155605
Ġfluid 155597
Ġambitions 155571
wife 155561
Ġintensive 155536
Ġsteals 155527
Ġfestive 155456
ĠHayes 155429
Ġrestoration 155419
Ġbranded 155417
Journal 155396
Ġmacro 155380
Ġconsole 155360
ĠMelania 155326
ĠRahul 155324
Ġdisposal 155290
Ġcult 155264
Ġpetrol 155261
Ġtires 155238
Ġkidnapping 155154
Ġ115 155145
Ġswap 155111
ĠSud 155107
Ġblown 155106
ĠHindu 155078
ĠBeckham 155044
ĠGul 155043
Ġfixture 155029
Ġwisdom 155027
Ġmines 154973
fort 154963
Ġrivers 154948
ĠCyber 154935
Ġtouches 154933
race 154932
Ġrelax 154919
Ġcrashes 154899
Ġconstituency 154889
Ġ1979 154875
Ġbureau 154855
Ġinterface 154845
Ġdetected 154824
ĠBio 154804
Ġhighlighting 154782
ames 154750
Ġcorresponding 154727
great 154723
Ġgray 154698
Ġadvantages 154683
ĠME 154679
ĠAbbas 154643
Ġnaked 154624
rington 154599
.), 154573
ĠFace 154535
third 154509
Ġtranscript 154465
ples 154450
Good 154438
ĠArctic 154435
Ġtolerance 154410
reat 154398
green 154370
ĠMik 154361
Ġoutreach 154352
Ġrolls 154336
Ġgen 154321
Ġsupplied 154316
Ġguarantees 154282
aug 154278
Ġsemif 154265
ounds 154263
running 154229
Ġfitting 154223
ĠRisk 154195
iveness 154179
family 154171
Ġti 154162
ĠIsaac 154157
Ġdump 154148
ĠPatricia 154138
Ġpassport 154123
ĠRhode 154116
Who 154084
log 154027
Ġstat 154019
Ġrat 154018
ango 153999
SB 153998
ĠMaur 153997
Ġsmiling 153996
Ġstrikeouts 153984
Ġpupils 153954
Ġcomplications 153934
ĠAdvanced 153913
ĠMonetary 153902
ĠTall 153889
ĠALL 153830
Ġcontributor 153800
ĠAdvertising 153775
Ġhorrific 153772
Ġcompeted 153762
ĠKenneth 153760
Ġhailed 153749
Ġbones 153742
Ġbolster 153725
ĠBoss 153715
Ġhospitalized 153713
ĠTelegraph 153700
ĠIndependence 153693
Ġdr 153661
ĠHang 153645
Ġdocumented 153620
Ġsubtle 153610
invest 153584
Ġbounced 153521
ĠMAN 153482
Ġprofession 153476
Ń 153473
Ġexcellence 153472
ĠInspector 153458
ĠBL 153450
Ġdisrupt 153435
ĠWinston 153433
ĠCommunist 153380
ĠSharon 153347
Ġmechanical 153341
Ġtreats 153335
Ġdesperately 153330
ĠIndy 153308
ĠGi 153298
ĠComposite 153294
ĠHeath 153268
aser 153259
ĠCardiff 153259
ilit 153251
Ġeased 153232
Ġprospective 153226
Ġcommissioned 153208
Ġtire 153204
Ġalign 153174
Ġgesture 153154
Ġweakened 153137
URE 153129
SN 153117
Ġnationals 153096
Ġrelies 153049
ĠIRS 153036
ĠCount 153035
Ġmedicines 153022
Ġcongress 153019
Ġstranger 152986
Qu 152962
lessly 152961
ĠQueens 152955
ĠAlleg 152952
uing 152929
ĠWy 152900
ĠMiguel 152864
idi 152848
Ġcivic 152843
ĠPetro 152777
endo 152776
Obviously 152773
Ġreflection 152733
ĠStop 152713
ĠFitzgerald 152701
placed 152700
shore 152687
Ġcorrectly 152661
ĠNE 152624
amy 152596
ĠCT 152522
some 152502
ĠMb 152483
oi 152432
ĠHogan 152418
ĠInnovation 152407
ĠVilla 152406
ĠCAN 152383
ĠCemetery 152371
into 152336
Ġquestionable 152305
Ġcreator 152300
rug 152274
Ġsemifinals 152263
mission 152256
Ġcle 152228
ĠWaters 152218
ĠNixon 152203
ĠBT 152196
Ġassuming 152180
ĠJer 152159
ĠClay 152108
pack 152108
ĠCool 152070
may 152055
Ġdecor 152032
Ġspike 152015
ĠSomalia 151954
ĠKarn 151951
ĠDamascus 151947
Shares 151927
Ġsus 151908
ĠMoss 151900
Ġ1985 151899
Ġsuperintendent 151881
ĠResults 151875
Ġspends 151864
prom 151863
Ġshipped 151859
Ġlaundering 151857
ĠLeslie 151855
Ġmeteor 151840
Ġabandon 151824
Ġdeliberately 151815
ĠSentinel 151771
Ġfascinating 151760
Ġenrollment 151700
ĠExperts 151697
ĠSimilarly 151683
ĠCuomo 151606
bor 151590
Ġune 151567
neutral 151566
Ġhamstring 151544
Ġnegotiated 151535
zes 151498
ĠLeo 151465
ĠDoctor 151455
Ġcurriculum 151415
ĠFocus 151403
Ġtravels 151390
Ġbeverage 151389
ĠIncluding 151377
tz 151362
type 151313
ĠRange 151309
Ġfloods 151288
Ġcoached 151280
Ġdominance 151258
letico 151250
ĠRafael 151179
Ġpredictions 151130
Ġprosperity 151110
ĠCav 151099
Ġclinics 151094
ĠBanking 151073
ĠComing 151068
ears 151053
ĠKaepernick 151050
ĠBlvd 151046
Ġretained 151039
isions 151028
Ġko 151001
Ġensemble 150992
Ġprecise 150988
Ġcompact 150978
MD 150977
ĠJet 150919
ached 150903
ĠTru 150870
ĠBass 150866
ĠIcon 150859
Ġexcluding 150829
sur 150822
Ġconstruct 150789
Ġvoiced 150787
pan 150781
Ġinability 150779
Ġexc 150761
Ġmate 150748
Ġtrailing 150743
Ġsuccessive 150735
Ġbets 150706
Ġgauge 150702
Ġminorities 150701
ĠIND 150649
ĠVel 150591
ĠGP 150581
oid 150571
bon 150541
Ġpred 150526
Ġdash 150516
Ġperformer 150510
Ġoccasional 150502
aken 150501
mes 150485
America 150479
Ġliver 150433
Sp 150430
Big 150411
Ġwildfires 150408
ĠJackie 150396
ĠLed 150364
ĠFinland 150349
Ġjurors 150347
olic 150339
urance 150327
ĠEdge 150326
open 150323
Ġscenarios 150312
Ġglory 150291
entry 150289
ĠCoffee 150285
rep 150248
ĠChand 150223
ĠVas 150219
ĠIslamabad 150211
Ġbur 150206
ĠFle 150181
ĠEdition 150174
Ġshoe 150167
ï¸ı 150165
** 150149
tle 150145
ĠEb 150121
keeping 150114
ĠBasketball 150114
ĠVon 150114
ĠCF 150112
MENT 150111
amm 150106
ĠFernando 150073
Ġcompares 150064
ĠDouble 150059
Ġconvictions 150055
Ġatop 150033
Ġcops 150025
Ġremembers 150022
Ġlacking 150016
dom 150003
itate 149972
ĠBeauty 149888
Ġdevelops 149879
ĠGor 149868
Ġfunctional 149816
ĠCOUNTY 149812
ĠUpon 149801
Ġsprint 149773
Ġinjection 149767
Ġminors 149719
ĠTamil 149709
ĠGat 149707
101 149698
ety 149683
Ġdrum 149678
Ġtasked 149660
Ġpact 149649
Ġ170 149632
MR 149629
ĠRamos 149596
Ġcandy 149593
Sc 149580
iced 149539
Ġsupermarket 149533
Ġworrying 149510
Ġsellers 149481
ĠTag 149475
.: 149458
Ġmixture 149431
oting 149413
Bl 149411
ĠLl 149407
ĠJal 149298
ican 149297
ĠBid 149267
country 149251
ĠStrategy 149234
Ġadverse 149204
Ġplunged 149200
ĠMit 149196
Ġstark 149166
aton 149157
Ġbooking 149155
Tr 149145
Ġcontainers 149134
Ġvintage 149129
ĠPit 149126
Ġsurfaced 149104
Ġindependently 149093
Ġdetection 149084
ĠBeyon 149083
Ġcasualties 149066
Ġstabbing 149057
oved 149055
Ġbarred 149051
Ġthereby 149015
Ġpartnered 148976
Ġposing 148923
ĠShannon 148871
ĠChapel 148870
Ġtechnically 148862
uous 148850
Â» 148845
ometer 148837
Ġwildfire 148835
share 148829
heart 148813
Ġammunition 148813
Ġthrive 148798
ĠStre 148798
GP 148777
cÃ© 148773
ĠMonaco 148764
goal 148749
ĠUm 148721
ĠHSBC 148710
ĠHilton 148693
ĠViv 148685
ĠKell 148683
Ġdecisive 148627
Ġmotive 148622
amo 148620
feld 148608
ĠWH 148578
iry 148574
ulu 148554
ĠSchneider 148540
Ġcampaigning 148525
Ġseparately 148513
igo 148505
ĠED 148502
ĠRamirez 148499
Ġmetro 148490
ĠPatel 148480
ĠChi 148469
ĠAudi 148438
Ġcharacteristics 148399
Ġrestart 148398
Ġkeyboard 148396
ĠSD 148374
his 148368
biz 148367
ĠSoft 148330
ĠGrammy 148326
Ġcontested 148323
Ġweekends 148301
Ġ112 148287
Ġcycling 148284
Ġhealthier 148280
ija 148279
Ġheader 148270
Ġemploy 148220
İ 148220
Ġshortages 148173
ĠAsk 148158
ĠIvanka 148157
Ġpartisan 148135
Ġflowing 148080
Ġcave 148078
ENS 148071
Ġups 148013
read 147986
ouch 147977
Ġ102 147964
Ġforming 147917
bot 147910
bie 147909
Ġenrolled 147905
Ġconcussion 147901
Ġaffidavit 147874
Ġmysterious 147867
uries 147865
ĠMang 147860
Ġauthentic 147859
Ġmetrics 147848
ĠTwins 147844
Ġprep 147820
IJ 147767
Ġdesired 147753
ĠDiv 147752
wall 147739
ĠTab 147704
Ġcompet 147703
Ġrelied 147652
Ġinequality 147635
Ġmanual 147624
ĠBucks 147606
agging 147605
Ġcorporation 147592
Ġbanner 147562
Ġgraphics 147562
Ġaccurately 147554
ĠMeeting 147533
Ġconsult 147520
ser 147490
Ġprotesting 147473
Ġhurting 147408
omed 147405
tes 147395
Ġrode 147383
Ġstartups 147355
Ġhanding 147242
ĠNest 147225
Ġconsistency 147218
anned 147175
dem 147160
ĠLyon 147093
ĠCompetition 147076
Ġtricky 147049
Ġcos 147031
ĠBengals 147017
arry 147016
Ġunderwent 146998
ĠKit 146965
à 146955
uploads 146925
Ġskate 146921
Ġ'' 146909
Ġjun 146887
ĠContent 146872
focused 146867
lat 146865
ĠExp 146864
ought 146864
Ġnightmare 146801
ĠExpect 146765
Ġprecisely 146703
ĠMonica 146699
Ġlobbying 146680
ĠChester 146669
ĠInvest 146654
Former 146636
Ġimminent 146625
ĠNL 146622
Ġcomparing 146611
ĠChes 146596
ede 146583
ĠNobel 146561
mers 146533
ĠKin 146525
ĠBoko 146513
ount 146508
Ġthoroughly 146488
Ġscattered 146483
sharing 146426
markets 146377
ĠMis 146323
Ġambition 146305
Ġpreference 146284
Ġeffectiveness 146275
rio 146260
Ġheavyweight 146242
Ġovert 146232
anya 146216
ĠKanye 146212
ishi 146198
Ġrewards 146177
uled 146169
bach 146142
Ġemphasized 146103
Ġapologize 146087
ĠRecent 146036
!! 146019
Ġanimated 145976
ĠExxon 145951
Ġfruits 145950
Ġstripped 145948
fold 145936
ĠIndonesian 145928
ller 145927
Ġdementia 145925
Ġkidney 145900
Ġhalted 145884
years 145869
Ġconcerts 145863
Ġrefers 145861
ĠFri 145857
Your 145846
irl 145839
Ġleap 145810
jud 145793
ĠHugh 145789
ĠFO 145789
Ġsore 145785
Ġkil 145767
ĠMate 145747
cci 145738
Ġsetback 145734
Ġtightening 145708
keeper 145698
ĠAlbany 145693
Ġpolicymakers 145690
Ġdisorders 145681
ĠCBC 145661
ĠDiaz 145652
Ġmaps 145638
Ġroutinely 145626
Ġverify 145621
Ġbash 145619
ĠJinping 145614
Ġdisasters 145602
ĠMonroe 145596
ĠLouise 145592
JP 145583
ĠNevertheless 145566
Ġconcessions 145565
ĠPog 145558
going 145504
ĠFifth 145482
ĠJill 145462
ICT 145458
ĠFM 145447
ĠSugar 145411
ĠBarb 145401
Ġmidway 145373
Ġtin 145319
ĠPic 145314
ĠPL 145310
Ġleaks 145293
Ġgrief 145290
Ġtattoo 145276
` 145276
Ġment 145255
ĠNu 145255
Ġmarry 145254
Ġdiving 145227
Ġ1982 145197
Ġcoin 145179
ĠPoc 145173
Ġstarred 145170
ĠRiverside 145170
Ġsidelined 145167
Ġminers 145138
STON 145119
Ġbelongs 145118
ĠSantos 145088
ĠTechnical 145086
aco 145079
Ġadvise 145063
Ġstreams 145062
Ġcooler 145051
ĠHE 145035
Ġordering 145026
ĠTask 144995
ĠACT 144989
ĠAnton 144984
Ġcertification 144969
ĠLeafs 144862
ĠTS 144855
ĠSerbia 144848
azi 144848
inks 144807
ĠEST 144798
Ġrelay 144764
Â° 144739
Ġdisappearance 144732
ĠRomania 144732
Ġoven 144729
Ġowed 144721
ĠStrip 144691
ulated 144670
UC 144624
ITE 144620
bling 144598
Then 144592
ppy 144587
Ġunlimited 144585
Ġcalories 144550
Ġmerchandise 144539
Ġblonde 144521
ĠSpicer 144514
performing 144509
Ġimpl 144509
Ġplates 144474
Ġmosque 144446
Ġdemon 144446
Ġought 144443
Ġdumped 144434
Ġtracked 144432
even 144427
Ġstabil 144424
imet 144413
ĠLiga 144396
ugh 144389
ther 144388
agar 144361
Ġarchitect 144353
Ġallocated 144331
ĠJoey 144327
Ġmarathon 144323
master 144305
ĠBert 144292
Ġast 144287
ĠEbola 144282
ĠConservation 144255
nic 144243
Ġparallel 144241
Ġinmate 144241
Ġlocate 144230
Ġdistribute 144229
guard 144214
Ġtackling 144200
ential 144196
Ġvi 144180
Ġcups 144170
Ġrhythm 144158
Ġendured 144156
ĠHub 144154
ois 144126
ĠLiberals 144107
ĠRedskins 144094
ĠEP 144049
ĠKnox 144028
fr 143966
Ġmassacre 143962
oka 143945
Ġcompl 143915
raft 143906
ĠPublished 143898
Ġattraction 143870
ĠStephens 143867
ility 143850
ĠPul 143840
ĠCapt 143798
Ġexploded 143787
Ġexceeded 143775
lying 143711
Ġcal 143672
Mart 143671
Ġpaintings 143653
inate 143641
ĠBrendan 143618
Ġfortune 143611
onductor 143519
Ġphysicians 143512
ĠStudy 143506
ĠBul 143503
ĠModern 143490
HD 143482
ĠBour 143478
Ġtying 143414
Ġ1967 143411
Ġlighter 143409
Ġtoss 143373
inspired 143336
Ġgreeted 143326
Ġcycl 143323
Ġverified 143288
Ġmerit 143282
sign 143277
lder 143264
Ġdebts 143258
ĠSnyder 143237
Ġamendments 143236
Ġindicators 143227
ĠDortmund 143176
then 143165
ĠListen 143162
ĠFB 143159
ref 143155
ĠIoT 143155
ĠBrewers 143153
ĠLeadership 143119
ĠNicolas 143113
ĠBody 143106
Ġsam 143102
ĠAdvisor 143098
Ġcord 143097
Ġabuses 143080
ĠPortuguese 143026
Ġflown 143025
VR 143020
Ġconsumed 143006
Ġreass 143001
Ġalien 142996
Ġrivalry 142984
ĠREPORT 142967
ĠRush 142945
Ġdirecting 142943
Ġsearches 142914
ĠHP 142910
ĠRoll 142910
ĠFay 142909
ĠClare 142908
Ġhaul 142902
Ġriot 142896
Ġsettlements 142873
Ġnorm 142862
Ġaccelerated 142838
ĠLok 142830
Ġclever 142814
Ġhyd 142806
Ġstats 142803
ĠHull 142793
kers 142780
Ġbuys 142717
uter 142698
Ġfue 142687
https 142670
UD 142664
Ġisolation 142663
Ġsuspend 142624
ĠRules 142623
ĠCircle 142622
ĠHopefully 142485
played 142483
âĢ³ 142454
ĠPRE 142400
sim 142388
edd 142372
ĠProperties 142362
Ġbeans 142345
Ġrevive 142335
ĠBir 142314
oug 142310
Ġmob 142296
Ġshowdown 142294
iman 142293
Ġpap 142280
Ġvol 142269
wu 142263
Ġdiver 142254
Ġpill 142243
ĠMarlins 142234
ĠLamar 142226
Ġpersistent 142210
Ġcondolences 142196
ĠThor 142196
Ab 142194
Ġimpress 142188
ĠRaptors 142187
Ġreferences 142181
Ġstiff 142177
ĠBash 142174
eding 142163
Ġmurders 142134
ĠGene 142118
ĠManila 142116
Ġbrokers 142113
Ms 142107
start 142074
ĠDhabi 142063
etz 142057
Ġsubmission 142033
ĠSchmidt 141961
ĠPersonal 141960
ĠBeverly 141944
ĠMovie 141934
ĠLamb 141929
Ġplacement 141927
Ġfolk 141914
Ġfrequency 141897
Ġplanted 141895
Ġtwins 141876
prov 141835
rec 141831
Ġpermanently 141803
Ġcoordination 141769
ĠCart 141755
Ġobstacles 141754
Ġliterature 141750
Ġtu 141739
Ġchill 141725
ĠReserved 141723
Ġlovers 141717
ĠOutside 141698
Ġslideshow 141689
ĠGru 141686
Ġty 141670
Ġsalad 141670
Ġlaboratory 141664
ĠHolt 141659
Ġ103 141650
urb 141623
ĠOrganisation 141606
ĠAndrews 141595
Ġrecipient 141591
arch 141574
Ġbleeding 141552
ĠPand 141540
Ġoverturned 141534
Ġlistened 141504
Ġclause 141490
Ġnationalist 141477
Ġresumed 141476
ĠCout 141467
ĠPride 141446
Ġlayers 141439
ĠBella 141433
Ġreversed 141365
Ġpriest 141351
ĠFX 141326
Ġalbeit 141322
Ġhalfway 141311
Ġcotton 141281
ĠCarey 141266
ĠTE 141262
OCK 141261
Ġbuck 141260
ributes 141247
ea 141238
Ġfancy 141232
ĠBuc 141202
Ġbans 141173
uters 141143
Ġliabilities 141137
ĠSou 141121
ĠBernie 141085
Ġintervene 141070
food 141064
ĠNDP 141053
Ġinsist 141043
Ġcontracted 141014
hawk 141014
)," 140988
ĠDawn 140965
Ġmol 140949
Ġcommissioners 140940
Ġstranded 140933
Ġoverwhelmed 140924
Ġrecipes 140899
Ġva 140878
Ġrad 140811
Ġscare 140786
rez 140783
Ġeliminating 140782
Ġresc 140766
ĠBreak 140763
chn 140737
Ġdelight 140709
iot 140698
Ġfreely 140677
TI 140661
ĠBluetooth 140656
ĠMonth 140651
ĠFlor 140640
ĠFreddie 140637
Ġtrailed 140636
Ġinvestigative 140632
Ġimposing 140631
Ġattracting 140619
awk 140587
ĠSherman 140585
Ġsucceeded 140572
Ġvent 140568
Ġreconciliation 140552
ĠCel 140540
ĠThroughout 140504
ĠDowntown 140498
ĠBrother 140492
Ġtraditions 140465
Ġmir 140454
Ġstamp 140454
tery 140450
etti 140420
isch 140397
tic 140392
Ġbanning 140354
loss 140350
ĠSpeedway 140325
Ġstalled 140315
ĠEN 140307
ASH 140304
thing 140274
ĠAppeals 140272
rac 140237
Ġdistress 140207
ĠConservatives 140176
ĠPremium 140174
usa 140170
Ġslump 140169
imm 140168
ĠSupp 140165
ĠWong 140162
Ġdistant 140156
Ġ104 140154
Ġtide 140149
ĠNorfolk 140148
ĠYang 140138
Ġsmashed 140134
ĠBarrett 140127
inho 140124
Ġrobbed 140115
ĠFarmers 140110
filled 140083
BT 140048
Ġautumn 140032
Ġtemple 140012
ĠJacobs 139969
Ġprecipitation 139966
ĠHours 139957
ĠFlight 139945
Ġbeside 139935
ĠOre 139930
!) 139915
ĠTurnbull 139911
Ġpig 139876
Ġcooling 139872
Ġservers 139860
oriented 139855
Ġlocks 139841
ĠSears 139840
aving 139835
ĠQuick 139834
ĠGlob 139815
ĠMining 139809
Ġhorizon 139778
arians 139757
ĠOm 139737
writing 139714
Ġbelieving 139695
Ġbon 139685
Ġmounted 139663
Ġpunt 139642
ucci 139623
uzz 139600
cul 139597
Ġkiss 139595
ĠOnt 139588
ĠCyprus 139587
Ġrelying 139583
Ġpiano 139552
Ġcure 139549
Ġcontinuously 139532
ĠNobody 139528
ĠBund 139474
osis 139469
ĠAurora 139457
ĠBach 139452
ĠKendall 139435
Ġechoed 139423
iable 139419
Ġconscious 139416
Ġmonster 139404
omo 139396
proof 139395
ĠNate 139371
Ġfilmmaker 139365
ĠNaj 139360
Ġvendor 139338
ĠFoot 139292
ĠChang 139285
ĠFest 139273
Ġselfie 139262
Ġenters 139260
ĠConor 139256
ĠMosul 139241
ĠWHAT 139237
Ġwa 139236
ĠGamb 139203
osta 139192
Ġcautioned 139171
ĠTucker 139164
ĠAirways 139161
Ġvisitor 139131
ĠÂ· 139128
ĠRevolution 139119
aching 139094
Ġearliest 139070
ĠQuality 139032
Ġshorts 139012
ube 138995
ĠOperation 138963
ĠSabha 138960
Ġstrengths 138948
ikes 138938
Ġsexy 138922
Ġrot 138921
ibles 138920
Ġcolours 138877
THE 138844
ailed 138824
Ġwoke 138812
ĠEmbassy 138772
Ġinfamous 138749
rov 138723
State 138692
âĢ¦. 138689
Ġpond 138684
Ġcapt 138649
fore 138649
De 138632
Ġedited 138619
self 138584
Hey 138583
Ġportrait 138535
ĠManufact 138511
ĠStand 138507
Ġcontenders 138495
': 138474
acker 138452
Ġwithdrawn 138452
ĠBraves 138452
ĠHosp 138446
changing 138429
ĠBag 138406
Ġadjustment 138388
ĠCousins 138345
ĠAAP 138313
Ġfi 138299
Ġoutdoors 138293
Ġlacked 138283
BM 138276
ĠWHO 138260
ĠPST 138234
ĠLuck 138229
Ġassisting 138228
ĠGround 138227
ĠTeen 138224
ĠOle 138195
Ġembarrassing 138186
ĠWalt 138185
ĠVision 138150
ĠFal 138085
ĠZoo 138078
ĠWorth 138067
ĠFloyd 138016
ĠGujarat 138013
Ġtipped 138002
Ġfam 137982
ĠDad 137982
Ġworship 137980
Ġtyre 137923
Ġrebuilding 137913
Ġqualities 137889
ĠLives 137887
Ġbeats 137879
Ġ450 137867
Ġexisted 137844
ĠGeorg 137838
Ġpoured 137832
rows 137831
ĠOx 137823
ĠSid 137814
Ġmac 137792
Ġteaches 137789
ĠEli 137788
alla 137776
Ġdownside 137772
ĠBend 137734
non 137723
ĠArmenia 137717
Ġcultures 137699
ĠMae 137683
Ġduration 137680
ĠAthletics 137661
Ġjuvenile 137649
Ġlid 137636
Ġbankers 137583
Ġoverview 137566
wy 137552
Ġorbit 137528
Vs 137523
because 137487
Ps 137481
ĠFran 137456
Ġtouring 137455
Ġwary 137453
Ġ106 137327
Ġlaser 137310
ĠVij 137299
âĦ¢ 137294
Ġsurrender 137290
press 137277
rees 137276
NO 137271
ĠShortly 137223
ĠKor 137218
edu 137198
Ġhatred 137185
Ġtee 137177
Ġfamously 137161
Ġkeeper 137159
ND 137140
Ġreduces 137138
HC 137125
Ġhay 137117
Ġunnamed 137112
ĠTes 137107
Ġattackers 137106
ĠFew 137105
ĠRichards 137089
Ġ1968 137075
Ġspeeches 137041
Ġcybersecurity 137033
ĠInfrastructure 137028
Ġ07 137024
ENCE 136991
uties 136987
Ġanxious 136975
ĠGang 136973
Ġannouncements 136969
lette 136945
oret 136892
ĠRockies 136858
ĠEmployees 136849
ĠThrones 136836
Ġhugely 136817
Ġclin 136805
ĠHob 136787
Ġfraction 136757
ĠOfficial 136751
ĠMariners 136719
ĠElse 136715
Ġsanctuary 136706
ĠPhotograph 136670
Ġreopen 136634
lf 136609
hm 136579
vest 136573
Ġspeeding 136572
Ġtooth 136554
ĠShi 136548
ĠTitle 136525
ĠMes 136515
ĠJobs 136465
fair 136462
ĠDanish 136448
ĠMalik 136448
Ġlaughed 136435
Ġnavy 136431
ĠActress 136428
ĠWilliamson 136423
overs 136409
Ġreckless 136378
Ġjo 136377
otic 136367
Ġassaulting 136361
Ġpri 136354
ĠPi 136347
Ġlesser 136319
Ġtit 136294
Ġdat 136274
Ġnail 136261
ĠMarathon 136253
ĠGren 136251
ĠDol 136242
Ġjointly 136241
Ġamended 136220
mine 136187
ĠBashar 136173
ĠHyundai 136161
Ġuncovered 136132
Ġeducated 136132
atti 136078
pres 136078
ĠBRE 136051
Ġya 136043
Bank 136013
odd 136008
lit 135991
ĠLinks 135968
Ġswitching 135949
itte 135947
ĠSind 135945
erved 135934
Ġ** 135919
Ġpositively 135915
Ġfrankly 135910
Ġrevenge 135906
ĠTrinity 135900
ĠCDC 135895
Ġthreatens 135887
Ġhammer 135886
NET 135878
ĠMut 135821
Ġsy 135794
Ġunidentified 135785
icken 135784
Ġdrills 135779
Ġtense 135770
Ġforeigners 135770
OST 135733
Ġethical 135730
ĠDurham 135729
ĠQual 135713
Ġterritories 135662
Ġid 135657
hor 135653
enders 135653
Mc 135638
OV 135624
percent 135612
Ġdom 135602
Ġupward 135580
Ġamb 135574
Ġvisas 135562
zan 135534
Ãĥ 135506
Ġundocumented 135459
Ġsuburbs 135442
Ġhydro 135442
ĠJob 135440
ĠAdelaide 135425
oya 135421
ĠSR 135408
ĠMick 135364
Ġconsolidation 135358
Ġemotionally 135358
ĠHop 135356
Her 135346
Ġloses 135332
ĠMoto 135312
eled 135257
Ġregulated 135236
ental 135234
Ġencountered 135230
Ġhop 135221
ĠTrafford 135218
Ġsticks 135211
Ġveto 135206
Ġexpose 135184
Ġstretched 135179
fin 135177
inance 135109
chair 135106
ĠGareth 135092
ĠPil 135089
ĠHammond 135084
Ġserial 135075
omy 135074
Ġcellphone 135068
ĠClara 135067
Ġreacted 135063
ĠNic 135055
ĠHomes 135017
ĠBroadcasting 135009
ĠFut 135005
ĠSupply 135003
assing 135001
ĠNewman 134997
Ġcharitable 134967
ĠClayton 134952
Ġsovereignty 134939
Ġconvincing 134938
ĠPrincipal 134906
ĠHigher 134906
ĠCut 134898
ĠCarrie 134885
ĠSpot 134884
Sometimes 134883
ĠJar 134876
ĠConsider 134866
ieu 134858
Ġrefinery 134834
Ġbloody 134777
wheel 134772
Ġcryptocurrencies 134753
Fund 134748
ĠSunderland 134738
ĠEvents 134725
âĢĭ 134724
Ġaccidentally 134703
deep 134687
Ġfranc 134683
bec 134677
ĠHartford 134677
Ġstellar 134658
wright 134646
kick 134646
UG 134641
ĠBeast 134634
Ġrefusal 134623
ĠRoberto 134607
ĠDixon 134594
ĠDiane 134575
name 134564
asts 134545
ĠCharter 134542
Ġfueled 134532
Ġcontents 134529
Ġaccessing 134525
Ġtroubles 134521
Ġtops 134516
Ġdebuted 134513
icating 134511
Ġinvestigator 134496
Ġsubscribing 134495
Ġcoordinated 134493
ĠFil 134484
six 134469
teen 134443
Ġwithdrew 134438
ĠGilbert 134427
Ġ1983 134402
arsity 134397
Ġimagination 134350
Ġhandgun 134341
ĠAlibaba 134319
Ġbug 134314
Ġ107 134302
ĠCOMP 134299
ĠSomething 134277
Ġreliability 134272
ĠFCC 134271
ĠFowler 134260
Ġsingled 134254
nom 134245
Ġknocking 134191
Ġmeddling 134161
Ġdetermining 134121
reports 134117
Ġshade 134103
ĠSN 134093
anto 134054
Ġcomplaining 134045
ĠNan 134043
WS 134036
Ġyoungsters 134027
Il 134023
ĠKaw 133985
ĠProp 133973
ĠCell 133968
ĠHurricanes 133931
Ġpublicity 133911
ĠXin 133910
rial 133866
ICO 133862
Ġsupervision 133845
ĠSpotify 133839
ĠNewport 133814
Ġprince 133802
anche 133794
Ġsubscriber 133782
ĠVic 133778
ACT 133777
ĠRaf 133736
ĠActing 133714
Ġcollusion 133710
pet 133687
isl 133682
Ġcommerce 133674
Health 133662
ĠAbraham 133646
pri 133633
Ġlightweight 133633
Ġinsurer 133626
Like 133617
Ġhelmet 133600
Ġevac 133581
look 133580
ĠNaval 133557
160 133555
ĠFleet 133546
vol 133540
Ġexpired 133521
ĠKlein 133484
ĠEmmy 133448
ABLE 133432
ĠMorocco 133397
ĠTrip 133386
uted 133382
Ġnos 133346
ĠVista 133310
mas 133302
ĠRocky 133271
ĠFlint 133251
enberg 133242
ĠBrow 133234
Ġsignatures 133213
Ġpolar 133210
ajo 133196
Ġendorsement 133125
Ġreservations 133121
LIN 133118
anny 133116
elli 133089
last 133079
Ġoversee 133031
cm 133028
ĠOilers 133010
Are 132998
Ġjudiciary 132990
onte 132981
ĠTrack 132978
Ġsupervisor 132978
erk 132973
isher 132970
Ġintact 132957
Ġslid 132945
icals 132912
paid 132911
ĠMAR 132907
lement 132894
ĠLiu 132883
ĠLarge 132867
ĠWings 132854
pect 132852
ĠRum 132829
Ġanalyzed 132816
Ġemploys 132814
arte 132808
ims 132797
ĠEventually 132792
Ġaffiliated 132780
Ġhospitality 132778
ĠSprint 132778
Ġresolutions 132771
[...]
